{
  "version": "1.0",
  "truncation": null,
  "padding": null,
  "added_tokens": [
    {
      "id": 0,
      "content": "[UNK]",
      "single_word": false,
      "lstrip": false,
      "rstrip": false,
      "normalized": false,
      "special": true
    },
    {
      "id": 1,
      "content": "[CLS]",
      "single_word": false,
      "lstrip": false,
      "rstrip": false,
      "normalized": false,
      "special": true
    },
    {
      "id": 2,
      "content": "[SEP]",
      "single_word": false,
      "lstrip": false,
      "rstrip": false,
      "normalized": false,
      "special": true
    },
    {
      "id": 3,
      "content": "[PAD]",
      "single_word": false,
      "lstrip": false,
      "rstrip": false,
      "normalized": false,
      "special": true
    },
    {
      "id": 4,
      "content": "[MASK]",
      "single_word": false,
      "lstrip": false,
      "rstrip": false,
      "normalized": false,
      "special": true
    }
  ],
  "normalizer": null,
  "pre_tokenizer": null,
  "post_processor": null,
  "decoder": null,
  "model": {
    "type": "BPE",
    "dropout": null,
    "unk_token": null,
    "continuing_subword_prefix": null,
    "end_of_word_suffix": null,
    "fuse_unk": false,
    "vocab": {
      "[UNK]": 0,
      "[CLS]": 1,
      "[SEP]": 2,
      "[PAD]": 3,
      "[MASK]": 4,
      "\n": 5,
      " ": 6,
      "!": 7,
      "\"": 8,
      "#": 9,
      "$": 10,
      "%": 11,
      "&": 12,
      "'": 13,
      "(": 14,
      ")": 15,
      "*": 16,
      "+": 17,
      ",": 18,
      "-": 19,
      ".": 20,
      "/": 21,
      "0": 22,
      "1": 23,
      "2": 24,
      "3": 25,
      "4": 26,
      "5": 27,
      "6": 28,
      "7": 29,
      "8": 30,
      "9": 31,
      ":": 32,
      ";": 33,
      "<": 34,
      "=": 35,
      ">": 36,
      "?": 37,
      "@": 38,
      "A": 39,
      "B": 40,
      "C": 41,
      "D": 42,
      "E": 43,
      "F": 44,
      "G": 45,
      "H": 46,
      "I": 47,
      "J": 48,
      "K": 49,
      "L": 50,
      "M": 51,
      "N": 52,
      "O": 53,
      "P": 54,
      "Q": 55,
      "R": 56,
      "S": 57,
      "T": 58,
      "U": 59,
      "V": 60,
      "W": 61,
      "X": 62,
      "Y": 63,
      "Z": 64,
      "[": 65,
      "\\": 66,
      "]": 67,
      "^": 68,
      "_": 69,
      "`": 70,
      "a": 71,
      "b": 72,
      "c": 73,
      "d": 74,
      "e": 75,
      "f": 76,
      "g": 77,
      "h": 78,
      "i": 79,
      "j": 80,
      "k": 81,
      "l": 82,
      "m": 83,
      "n": 84,
      "o": 85,
      "p": 86,
      "q": 87,
      "r": 88,
      "s": 89,
      "t": 90,
      "u": 91,
      "v": 92,
      "w": 93,
      "x": 94,
      "y": 95,
      "z": 96,
      "{": 97,
      "|": 98,
      "}": 99,
      "~": 100,
      "": 101,
      "": 102,
      "": 103,
      "": 104,
      "": 105,
      "": 106,
      "¡": 107,
      "¢": 108,
      "£": 109,
      "¤": 110,
      "¥": 111,
      "§": 112,
      "©": 113,
      "«": 114,
      "­": 115,
      "®": 116,
      "¯": 117,
      "°": 118,
      "±": 119,
      "²": 120,
      "³": 121,
      "´": 122,
      "µ": 123,
      "¶": 124,
      "·": 125,
      "¹": 126,
      "º": 127,
      "»": 128,
      "¼": 129,
      "½": 130,
      "¾": 131,
      "¿": 132,
      "À": 133,
      "Á": 134,
      "Â": 135,
      "Ä": 136,
      "Å": 137,
      "Æ": 138,
      "Ç": 139,
      "È": 140,
      "É": 141,
      "Ê": 142,
      "Ë": 143,
      "Ì": 144,
      "Í": 145,
      "Î": 146,
      "Ï": 147,
      "Ð": 148,
      "Ñ": 149,
      "Ò": 150,
      "Ó": 151,
      "Ô": 152,
      "Õ": 153,
      "Ö": 154,
      "×": 155,
      "Ø": 156,
      "Ù": 157,
      "Ú": 158,
      "Ü": 159,
      "Ý": 160,
      "Þ": 161,
      "ß": 162,
      "à": 163,
      "á": 164,
      "â": 165,
      "ã": 166,
      "ä": 167,
      "å": 168,
      "æ": 169,
      "ç": 170,
      "è": 171,
      "é": 172,
      "ê": 173,
      "ë": 174,
      "ì": 175,
      "í": 176,
      "î": 177,
      "ï": 178,
      "ð": 179,
      "ñ": 180,
      "ò": 181,
      "ó": 182,
      "ô": 183,
      "õ": 184,
      "ö": 185,
      "÷": 186,
      "ø": 187,
      "ù": 188,
      "ú": 189,
      "û": 190,
      "ü": 191,
      "ý": 192,
      "þ": 193,
      "ÿ": 194,
      "Ā": 195,
      "ā": 196,
      "Ă": 197,
      "ă": 198,
      "ą": 199,
      "Ć": 200,
      "ć": 201,
      "ĉ": 202,
      "Ċ": 203,
      "ċ": 204,
      "Č": 205,
      "č": 206,
      "Ď": 207,
      "ď": 208,
      "Đ": 209,
      "đ": 210,
      "Ē": 211,
      "ē": 212,
      "Ĕ": 213,
      "ĕ": 214,
      "Ė": 215,
      "ė": 216,
      "ę": 217,
      "Ě": 218,
      "ě": 219,
      "ğ": 220,
      "Ġ": 221,
      "ġ": 222,
      "Ģ": 223,
      "ģ": 224,
      "Ĥ": 225,
      "Ħ": 226,
      "ħ": 227,
      "ĩ": 228,
      "Ī": 229,
      "ī": 230,
      "ĭ": 231,
      "į": 232,
      "İ": 233,
      "ı": 234,
      "ĵ": 235,
      "Ķ": 236,
      "ķ": 237,
      "ĸ": 238,
      "ĺ": 239,
      "ļ": 240,
      "Ľ": 241,
      "ľ": 242,
      "Ł": 243,
      "ł": 244,
      "ń": 245,
      "ņ": 246,
      "ň": 247,
      "Ŋ": 248,
      "ŋ": 249,
      "Ō": 250,
      "ō": 251,
      "ŏ": 252,
      "ő": 253,
      "Œ": 254,
      "œ": 255,
      "Ŗ": 256,
      "ŗ": 257,
      "Ř": 258,
      "ř": 259,
      "Ś": 260,
      "ś": 261,
      "Ŝ": 262,
      "Ş": 263,
      "ş": 264,
      "Š": 265,
      "š": 266,
      "Ţ": 267,
      "ţ": 268,
      "ť": 269,
      "ŧ": 270,
      "ũ": 271,
      "Ū": 272,
      "ū": 273,
      "ŭ": 274,
      "ů": 275,
      "ű": 276,
      "ų": 277,
      "ŵ": 278,
      "ŷ": 279,
      "Ź": 280,
      "ź": 281,
      "Ż": 282,
      "ż": 283,
      "Ž": 284,
      "ž": 285,
      "ſ": 286,
      "ƀ": 287,
      "Ɔ": 288,
      "Ƈ": 289,
      "ƈ": 290,
      "Ɖ": 291,
      "ƍ": 292,
      "Ǝ": 293,
      "Ə": 294,
      "Ɛ": 295,
      "ƒ": 296,
      "Ɣ": 297,
      "ƙ": 298,
      "ƛ": 299,
      "ơ": 300,
      "Ƣ": 301,
      "ƥ": 302,
      "ƭ": 303,
      "ư": 304,
      "Ʋ": 305,
      "ƿ": 306,
      "ǀ": 307,
      "ǁ": 308,
      "ǂ": 309,
      "ǃ": 310,
      "ǎ": 311,
      "ǐ": 312,
      "Ǒ": 313,
      "ǒ": 314,
      "ǔ": 315,
      "ǚ": 316,
      "ǜ": 317,
      "ǝ": 318,
      "Ǣ": 319,
      "ǣ": 320,
      "Ǧ": 321,
      "ǧ": 322,
      "Ǫ": 323,
      "ǫ": 324,
      "ǭ": 325,
      "ǰ": 326,
      "ǵ": 327,
      "Ƿ": 328,
      "Ǹ": 329,
      "ǹ": 330,
      "ǽ": 331,
      "Ș": 332,
      "ș": 333,
      "Ț": 334,
      "ț": 335,
      "Ȝ": 336,
      "ȝ": 337,
      "ȟ": 338,
      "ȯ": 339,
      "ȳ": 340,
      "ȷ": 341,
      "ȼ": 342,
      "Ɉ": 343,
      "ɐ": 344,
      "ɑ": 345,
      "ɒ": 346,
      "ɓ": 347,
      "ɔ": 348,
      "ɕ": 349,
      "ɖ": 350,
      "ɗ": 351,
      "ɘ": 352,
      "ə": 353,
      "ɚ": 354,
      "ɛ": 355,
      "ɜ": 356,
      "ɞ": 357,
      "ɟ": 358,
      "ɠ": 359,
      "ɡ": 360,
      "ɢ": 361,
      "ɣ": 362,
      "ɤ": 363,
      "ɥ": 364,
      "ɦ": 365,
      "ɧ": 366,
      "ɨ": 367,
      "ɪ": 368,
      "ɫ": 369,
      "ɬ": 370,
      "ɭ": 371,
      "ɮ": 372,
      "ɯ": 373,
      "ɰ": 374,
      "ɱ": 375,
      "ɲ": 376,
      "ɳ": 377,
      "ɴ": 378,
      "ɵ": 379,
      "ɶ": 380,
      "ɷ": 381,
      "ɸ": 382,
      "ɹ": 383,
      "ɺ": 384,
      "ɻ": 385,
      "ɽ": 386,
      "ɾ": 387,
      "ʀ": 388,
      "ʁ": 389,
      "ʂ": 390,
      "ʃ": 391,
      "ʄ": 392,
      "ʇ": 393,
      "ʈ": 394,
      "ʉ": 395,
      "ʊ": 396,
      "ʋ": 397,
      "ʌ": 398,
      "ʍ": 399,
      "ʎ": 400,
      "ʏ": 401,
      "ʐ": 402,
      "ʑ": 403,
      "ʒ": 404,
      "ʔ": 405,
      "ʕ": 406,
      "ʖ": 407,
      "ʗ": 408,
      "ʘ": 409,
      "ʙ": 410,
      "ʛ": 411,
      "ʝ": 412,
      "ʟ": 413,
      "ʠ": 414,
      "ʡ": 415,
      "ʢ": 416,
      "ʰ": 417,
      "ʱ": 418,
      "ʲ": 419,
      "ʳ": 420,
      "ʷ": 421,
      "ʹ": 422,
      "ʻ": 423,
      "ʼ": 424,
      "ʽ": 425,
      "ʾ": 426,
      "ʿ": 427,
      "ˀ": 428,
      "ˁ": 429,
      "ˆ": 430,
      "ˇ": 431,
      "ˈ": 432,
      "ˌ": 433,
      "ː": 434,
      "ˑ": 435,
      "˔": 436,
      "˕": 437,
      "˖": 438,
      "˘": 439,
      "˚": 440,
      "˜": 441,
      "˞": 442,
      "ˠ": 443,
      "ˢ": 444,
      "ˣ": 445,
      "ˤ": 446,
      "˥": 447,
      "˦": 448,
      "˧": 449,
      "˨": 450,
      "˩": 451,
      "̀": 452,
      "́": 453,
      "̂": 454,
      "̃": 455,
      "̄": 456,
      "̆": 457,
      "̇": 458,
      "̈": 459,
      "̊": 460,
      "̋": 461,
      "̌": 462,
      "̍": 463,
      "̏": 464,
      "̐": 465,
      "̑": 466,
      "̖": 467,
      "̗": 468,
      "̚": 469,
      "̝": 470,
      "̞": 471,
      "̟": 472,
      "̠": 473,
      "̣": 474,
      "̤": 475,
      "̥": 476,
      "̧": 477,
      "̩": 478,
      "̪": 479,
      "̬": 480,
      "̮": 481,
      "̯": 482,
      "̰": 483,
      "̱": 484,
      "̲": 485,
      "̳": 486,
      "̺": 487,
      "̽": 488,
      "͌": 489,
      "͍": 490,
      "͘": 491,
      "͜": 492,
      "͡": 493,
      "΄": 494,
      "Ά": 495,
      "Έ": 496,
      "Ή": 497,
      "Ί": 498,
      "Ό": 499,
      "Ύ": 500,
      "ΐ": 501,
      "Α": 502,
      "Β": 503,
      "Γ": 504,
      "Δ": 505,
      "Ε": 506,
      "Ζ": 507,
      "Η": 508,
      "Θ": 509,
      "Ι": 510,
      "Κ": 511,
      "Λ": 512,
      "Μ": 513,
      "Ν": 514,
      "Ξ": 515,
      "Ο": 516,
      "Π": 517,
      "Ρ": 518,
      "Σ": 519,
      "Τ": 520,
      "Υ": 521,
      "Φ": 522,
      "Χ": 523,
      "Ψ": 524,
      "Ω": 525,
      "ά": 526,
      "έ": 527,
      "ή": 528,
      "ί": 529,
      "α": 530,
      "β": 531,
      "γ": 532,
      "δ": 533,
      "ε": 534,
      "ζ": 535,
      "η": 536,
      "θ": 537,
      "ι": 538,
      "κ": 539,
      "λ": 540,
      "μ": 541,
      "ν": 542,
      "ξ": 543,
      "ο": 544,
      "π": 545,
      "ρ": 546,
      "ς": 547,
      "σ": 548,
      "τ": 549,
      "υ": 550,
      "φ": 551,
      "χ": 552,
      "ψ": 553,
      "ω": 554,
      "ϊ": 555,
      "ό": 556,
      "ύ": 557,
      "ώ": 558,
      "ϑ": 559,
      "ϕ": 560,
      "ϝ": 561,
      "ϟ": 562,
      "ϵ": 563,
      "Ђ": 564,
      "Є": 565,
      "І": 566,
      "Ї": 567,
      "Ј": 568,
      "Љ": 569,
      "Ћ": 570,
      "А": 571,
      "Б": 572,
      "В": 573,
      "Г": 574,
      "Д": 575,
      "Е": 576,
      "Ж": 577,
      "З": 578,
      "И": 579,
      "Й": 580,
      "К": 581,
      "Л": 582,
      "М": 583,
      "Н": 584,
      "О": 585,
      "П": 586,
      "Р": 587,
      "С": 588,
      "Т": 589,
      "У": 590,
      "Ф": 591,
      "Х": 592,
      "Ц": 593,
      "Ч": 594,
      "Ш": 595,
      "Щ": 596,
      "Ъ": 597,
      "Ы": 598,
      "Ь": 599,
      "Э": 600,
      "Ю": 601,
      "Я": 602,
      "а": 603,
      "б": 604,
      "в": 605,
      "г": 606,
      "д": 607,
      "е": 608,
      "ж": 609,
      "з": 610,
      "и": 611,
      "й": 612,
      "к": 613,
      "л": 614,
      "м": 615,
      "н": 616,
      "о": 617,
      "п": 618,
      "р": 619,
      "с": 620,
      "т": 621,
      "у": 622,
      "ф": 623,
      "х": 624,
      "ц": 625,
      "ч": 626,
      "ш": 627,
      "щ": 628,
      "ъ": 629,
      "ы": 630,
      "ь": 631,
      "э": 632,
      "ю": 633,
      "я": 634,
      "ё": 635,
      "ђ": 636,
      "є": 637,
      "і": 638,
      "ї": 639,
      "ј": 640,
      "љ": 641,
      "њ": 642,
      "ћ": 643,
      "ѝ": 644,
      "ў": 645,
      "Ѡ": 646,
      "ѡ": 647,
      "Ѣ": 648,
      "ѣ": 649,
      "ѥ": 650,
      "ѧ": 651,
      "Ѯ": 652,
      "ѹ": 653,
      "҆": 654,
      "ғ": 655,
      "қ": 656,
      "ү": 657,
      "ҳ": 658,
      "ҷ": 659,
      "ӣ": 660,
      "Ө": 661,
      "ө": 662,
      "ӯ": 663,
      "Ӷ": 664,
      "ӷ": 665,
      "Ա": 666,
      "Բ": 667,
      "Գ": 668,
      "Դ": 669,
      "Ե": 670,
      "Զ": 671,
      "Է": 672,
      "Ը": 673,
      "Թ": 674,
      "Ժ": 675,
      "Ի": 676,
      "Լ": 677,
      "Խ": 678,
      "Կ": 679,
      "Հ": 680,
      "Ձ": 681,
      "Ղ": 682,
      "Ճ": 683,
      "Մ": 684,
      "Յ": 685,
      "Ն": 686,
      "Շ": 687,
      "Ո": 688,
      "Պ": 689,
      "Ջ": 690,
      "Ռ": 691,
      "Ս": 692,
      "Վ": 693,
      "Տ": 694,
      "Փ": 695,
      "Ք": 696,
      "Օ": 697,
      "ա": 698,
      "բ": 699,
      "գ": 700,
      "դ": 701,
      "ե": 702,
      "զ": 703,
      "է": 704,
      "ը": 705,
      "թ": 706,
      "ժ": 707,
      "ի": 708,
      "լ": 709,
      "խ": 710,
      "ծ": 711,
      "կ": 712,
      "հ": 713,
      "ձ": 714,
      "ղ": 715,
      "ճ": 716,
      "մ": 717,
      "յ": 718,
      "ն": 719,
      "շ": 720,
      "ո": 721,
      "չ": 722,
      "պ": 723,
      "ջ": 724,
      "ռ": 725,
      "ս": 726,
      "վ": 727,
      "տ": 728,
      "ր": 729,
      "ց": 730,
      "ւ": 731,
      "փ": 732,
      "ք": 733,
      "օ": 734,
      "և": 735,
      "֤": 736,
      "֫": 737,
      "ְ": 738,
      "ֱ": 739,
      "ֲ": 740,
      "ֳ": 741,
      "ִ": 742,
      "ֵ": 743,
      "ֶ": 744,
      "ַ": 745,
      "ָ": 746,
      "ֹ": 747,
      "ֻ": 748,
      "ּ": 749,
      "ֽ": 750,
      "ֿ": 751,
      "ׁ": 752,
      "ׂ": 753,
      "א": 754,
      "ב": 755,
      "ג": 756,
      "ד": 757,
      "ה": 758,
      "ו": 759,
      "ז": 760,
      "ח": 761,
      "ט": 762,
      "י": 763,
      "ך": 764,
      "כ": 765,
      "ל": 766,
      "ם": 767,
      "מ": 768,
      "ן": 769,
      "נ": 770,
      "ס": 771,
      "ע": 772,
      "ף": 773,
      "פ": 774,
      "ץ": 775,
      "צ": 776,
      "ק": 777,
      "ר": 778,
      "ש": 779,
      "ת": 780,
      "ױ": 781,
      "׳": 782,
      "،": 783,
      "ء": 784,
      "آ": 785,
      "أ": 786,
      "ؤ": 787,
      "إ": 788,
      "ئ": 789,
      "ا": 790,
      "ب": 791,
      "ة": 792,
      "ت": 793,
      "ث": 794,
      "ج": 795,
      "ح": 796,
      "خ": 797,
      "د": 798,
      "ذ": 799,
      "ر": 800,
      "ز": 801,
      "س": 802,
      "ش": 803,
      "ص": 804,
      "ض": 805,
      "ط": 806,
      "ظ": 807,
      "ع": 808,
      "غ": 809,
      "ـ": 810,
      "ف": 811,
      "ق": 812,
      "ك": 813,
      "ل": 814,
      "م": 815,
      "ن": 816,
      "ه": 817,
      "و": 818,
      "ى": 819,
      "ي": 820,
      "ً": 821,
      "ٌ": 822,
      "ٍ": 823,
      "َ": 824,
      "ُ": 825,
      "ِ": 826,
      "ّ": 827,
      "ْ": 828,
      "ٔ": 829,
      "١": 830,
      "٧": 831,
      "ٰ": 832,
      "پ": 833,
      "چ": 834,
      "ڈ": 835,
      "ڠ": 836,
      "ک": 837,
      "ڬ": 838,
      "گ": 839,
      "ں": 840,
      "ھ": 841,
      "ہ": 842,
      "ی": 843,
      "ۍ": 844,
      "ے": 845,
      "ە": 846,
      "ܐ": 847,
      "ܒ": 848,
      "ܔ": 849,
      "ܕ": 850,
      "ܗ": 851,
      "ܘ": 852,
      "ܙ": 853,
      "ܚ": 854,
      "ܛ": 855,
      "ܝ": 856,
      "ܠ": 857,
      "ܡ": 858,
      "ܢ": 859,
      "ܣ": 860,
      "ܥ": 861,
      "ܦ": 862,
      "ܪ": 863,
      "ܬ": 864,
      "ܲ": 865,
      "ܵ": 866,
      "ܼ": 867,
      "݂": 868,
      "ँ": 869,
      "ं": 870,
      "ः": 871,
      "अ": 872,
      "आ": 873,
      "इ": 874,
      "ई": 875,
      "उ": 876,
      "ऋ": 877,
      "ए": 878,
      "ऐ": 879,
      "औ": 880,
      "क": 881,
      "ख": 882,
      "ग": 883,
      "घ": 884,
      "ङ": 885,
      "च": 886,
      "छ": 887,
      "ज": 888,
      "ञ": 889,
      "ट": 890,
      "ठ": 891,
      "ड": 892,
      "ण": 893,
      "त": 894,
      "थ": 895,
      "द": 896,
      "ध": 897,
      "न": 898,
      "प": 899,
      "फ": 900,
      "ब": 901,
      "भ": 902,
      "म": 903,
      "य": 904,
      "र": 905,
      "ल": 906,
      "व": 907,
      "श": 908,
      "ष": 909,
      "स": 910,
      "ह": 911,
      "़": 912,
      "ऽ": 913,
      "ा": 914,
      "ि": 915,
      "ी": 916,
      "ु": 917,
      "ू": 918,
      "ृ": 919,
      "ॆ": 920,
      "े": 921,
      "ै": 922,
      "ॉ": 923,
      "ॊ": 924,
      "ो": 925,
      "ौ": 926,
      "्": 927,
      "ॐ": 928,
      "।": 929,
      "॥": 930,
      "१": 931,
      "२": 932,
      "३": 933,
      "ং": 934,
      "অ": 935,
      "আ": 936,
      "ই": 937,
      "এ": 938,
      "ক": 939,
      "খ": 940,
      "গ": 941,
      "ঙ": 942,
      "চ": 943,
      "জ": 944,
      "ট": 945,
      "ড": 946,
      "ঢ": 947,
      "ণ": 948,
      "ত": 949,
      "থ": 950,
      "দ": 951,
      "ন": 952,
      "প": 953,
      "ব": 954,
      "ভ": 955,
      "ম": 956,
      "য": 957,
      "র": 958,
      "ল": 959,
      "শ": 960,
      "ষ": 961,
      "স": 962,
      "হ": 963,
      "়": 964,
      "া": 965,
      "ি": 966,
      "ী": 967,
      "ু": 968,
      "ূ": 969,
      "ে": 970,
      "ৈ": 971,
      "ো": 972,
      "্": 973,
      "ৰ": 974,
      "ਂ": 975,
      "ਅ": 976,
      "ਉ": 977,
      "ਖ": 978,
      "ਘ": 979,
      "ਜ": 980,
      "ਝ": 981,
      "ਦ": 982,
      "ਲ": 983,
      "ਵ": 984,
      "ਸ": 985,
      "ਹ": 986,
      "਼": 987,
      "ਾ": 988,
      "ਿ": 989,
      "ੁ": 990,
      "ੇ": 991,
      "ੰ": 992,
      "ੱ": 993,
      "ખ": 994,
      "ફ": 995,
      "બ": 996,
      "ર": 997,
      "લ": 998,
      "સ": 999,
      "ા": 1000,
      "ો": 1001,
      "ପ": 1002,
      "ର": 1003,
      "ୀ": 1004,
      "ୁ": 1005,
      "ஃ": 1006,
      "அ": 1007,
      "ஆ": 1008,
      "இ": 1009,
      "ஈ": 1010,
      "எ": 1011,
      "ஒ": 1012,
      "க": 1013,
      "ங": 1014,
      "ச": 1015,
      "ட": 1016,
      "ண": 1017,
      "த": 1018,
      "ந": 1019,
      "ன": 1020,
      "ப": 1021,
      "ம": 1022,
      "ய": 1023,
      "ர": 1024,
      "ற": 1025,
      "ல": 1026,
      "ள": 1027,
      "ழ": 1028,
      "வ": 1029,
      "ஸ": 1030,
      "ா": 1031,
      "ி": 1032,
      "ீ": 1033,
      "ு": 1034,
      "ூ": 1035,
      "ெ": 1036,
      "ே": 1037,
      "ை": 1038,
      "ோ": 1039,
      "்": 1040,
      "ం": 1041,
      "క": 1042,
      "ఖ": 1043,
      "గ": 1044,
      "జ": 1045,
      "ట": 1046,
      "ఠ": 1047,
      "డ": 1048,
      "త": 1049,
      "థ": 1050,
      "ద": 1051,
      "న": 1052,
      "ప": 1053,
      "బ": 1054,
      "భ": 1055,
      "మ": 1056,
      "య": 1057,
      "ర": 1058,
      "ల": 1059,
      "వ": 1060,
      "ష": 1061,
      "స": 1062,
      "ా": 1063,
      "ి": 1064,
      "ీ": 1065,
      "ు": 1066,
      "ై": 1067,
      "ో": 1068,
      "్": 1069,
      "ಂ": 1070,
      "ಃ": 1071,
      "ಕ": 1072,
      "ಖ": 1073,
      "ಗ": 1074,
      "ಚ": 1075,
      "ಟ": 1076,
      "ಠ": 1077,
      "ಡ": 1078,
      "ತ": 1079,
      "ದ": 1080,
      "ನ": 1081,
      "ಪ": 1082,
      "ಬ": 1083,
      "ಭ": 1084,
      "ಮ": 1085,
      "ಯ": 1086,
      "ರ": 1087,
      "ಱ": 1088,
      "ಲ": 1089,
      "ಳ": 1090,
      "ವ": 1091,
      "ಶ": 1092,
      "ಸ": 1093,
      "ಹ": 1094,
      "ಾ": 1095,
      "ಿ": 1096,
      "ು": 1097,
      "ೇ": 1098,
      "ೋ": 1099,
      "್": 1100,
      "ೞ": 1101,
      "അ": 1102,
      "ങ": 1103,
      "ദ": 1104,
      "ന": 1105,
      "പ": 1106,
      "മ": 1107,
      "യ": 1108,
      "ര": 1109,
      "ള": 1110,
      "വ": 1111,
      "ശ": 1112,
      "സ": 1113,
      "ഹ": 1114,
      "ാ": 1115,
      "ി": 1116,
      "്": 1117,
      "අ": 1118,
      "එ": 1119,
      "ක": 1120,
      "ග": 1121,
      "ජ": 1122,
      "ත": 1123,
      "ධ": 1124,
      "න": 1125,
      "ප": 1126,
      "ම": 1127,
      "ය": 1128,
      "ර": 1129,
      "ල": 1130,
      "ව": 1131,
      "ශ": 1132,
      "හ": 1133,
      "ළ": 1134,
      "්": 1135,
      "ා": 1136,
      "ැ": 1137,
      "ි": 1138,
      "ු": 1139,
      "ේ": 1140,
      "ෝ": 1141,
      "ก": 1142,
      "ข": 1143,
      "ค": 1144,
      "ฆ": 1145,
      "ง": 1146,
      "จ": 1147,
      "ฉ": 1148,
      "ช": 1149,
      "ซ": 1150,
      "ญ": 1151,
      "ฎ": 1152,
      "ฏ": 1153,
      "ฐ": 1154,
      "ฑ": 1155,
      "ณ": 1156,
      "ด": 1157,
      "ต": 1158,
      "ถ": 1159,
      "ท": 1160,
      "ธ": 1161,
      "น": 1162,
      "บ": 1163,
      "ป": 1164,
      "ผ": 1165,
      "ฝ": 1166,
      "พ": 1167,
      "ฟ": 1168,
      "ภ": 1169,
      "ม": 1170,
      "ย": 1171,
      "ร": 1172,
      "ฤ": 1173,
      "ล": 1174,
      "ว": 1175,
      "ศ": 1176,
      "ษ": 1177,
      "ส": 1178,
      "ห": 1179,
      "ฬ": 1180,
      "อ": 1181,
      "ฮ": 1182,
      "ะ": 1183,
      "ั": 1184,
      "า": 1185,
      "ำ": 1186,
      "ิ": 1187,
      "ี": 1188,
      "ึ": 1189,
      "ื": 1190,
      "ุ": 1191,
      "ู": 1192,
      "฿": 1193,
      "เ": 1194,
      "แ": 1195,
      "โ": 1196,
      "ใ": 1197,
      "ไ": 1198,
      "็": 1199,
      "่": 1200,
      "้": 1201,
      "๊": 1202,
      "์": 1203,
      "་": 1204,
      "༌": 1205,
      "།": 1206,
      "ཀ": 1207,
      "ཁ": 1208,
      "ག": 1209,
      "ང": 1210,
      "ཆ": 1211,
      "ཇ": 1212,
      "ཐ": 1213,
      "ད": 1214,
      "ན": 1215,
      "པ": 1216,
      "བ": 1217,
      "མ": 1218,
      "ཙ": 1219,
      "ཚ": 1220,
      "ཛ": 1221,
      "འ": 1222,
      "ཡ": 1223,
      "ར": 1224,
      "ལ": 1225,
      "ས": 1226,
      "ཧ": 1227,
      "ི": 1228,
      "ུ": 1229,
      "ེ": 1230,
      "ོ": 1231,
      "ྟ": 1232,
      "ྡ": 1233,
      "ྣ": 1234,
      "ྤ": 1235,
      "ྥ": 1236,
      "ྱ": 1237,
      "ྲ": 1238,
      "က": 1239,
      "ဂ": 1240,
      "င": 1241,
      "စ": 1242,
      "ဆ": 1243,
      "ဇ": 1244,
      "တ": 1245,
      "န": 1246,
      "ပ": 1247,
      "ဗ": 1248,
      "ဘ": 1249,
      "မ": 1250,
      "ယ": 1251,
      "ရ": 1252,
      "လ": 1253,
      "ဝ": 1254,
      "ဟ": 1255,
      "အ": 1256,
      "ာ": 1257,
      "ိ": 1258,
      "ီ": 1259,
      "ု": 1260,
      "ူ": 1261,
      "ဲ": 1262,
      "း": 1263,
      "္": 1264,
      "်": 1265,
      "ျ": 1266,
      "ြ": 1267,
      "ွ": 1268,
      "ှ": 1269,
      "၁": 1270,
      "၂": 1271,
      "၇": 1272,
      "၈": 1273,
      "Ⴀ": 1274,
      "Ⴂ": 1275,
      "Ⴃ": 1276,
      "Ⴈ": 1277,
      "Ⴌ": 1278,
      "Ⴕ": 1279,
      "Ⴟ": 1280,
      "ა": 1281,
      "ბ": 1282,
      "გ": 1283,
      "დ": 1284,
      "ე": 1285,
      "ვ": 1286,
      "ზ": 1287,
      "თ": 1288,
      "ი": 1289,
      "კ": 1290,
      "ლ": 1291,
      "მ": 1292,
      "ნ": 1293,
      "ო": 1294,
      "პ": 1295,
      "ჟ": 1296,
      "რ": 1297,
      "ს": 1298,
      "ტ": 1299,
      "უ": 1300,
      "ფ": 1301,
      "ქ": 1302,
      "ღ": 1303,
      "ყ": 1304,
      "შ": 1305,
      "ჩ": 1306,
      "ც": 1307,
      "ძ": 1308,
      "წ": 1309,
      "ჭ": 1310,
      "ხ": 1311,
      "ჯ": 1312,
      "ჰ": 1313,
      "ჱ": 1314,
      "ჲ": 1315,
      "ჳ": 1316,
      "ჴ": 1317,
      "ჵ": 1318,
      "ჶ": 1319,
      "ჷ": 1320,
      "ჸ": 1321,
      "ჹ": 1322,
      "ჺ": 1323,
      "჻": 1324,
      "ሀ": 1325,
      "ለ": 1326,
      "ሐ": 1327,
      "ሓ": 1328,
      "ሕ": 1329,
      "መ": 1330,
      "ማ": 1331,
      "ሥ": 1332,
      "ረ": 1333,
      "ር": 1334,
      "ሰ": 1335,
      "ስ": 1336,
      "ቆ": 1337,
      "ቈ": 1338,
      "በ": 1339,
      "ብ": 1340,
      "ቲ": 1341,
      "ታ": 1342,
      "ት": 1343,
      "ነ": 1344,
      "ና": 1345,
      "ን": 1346,
      "ኖ": 1347,
      "አ": 1348,
      "ኢ": 1349,
      "እ": 1350,
      "ከ": 1351,
      "ኲ": 1352,
      "ዕ": 1353,
      "ዘ": 1354,
      "ዛ": 1355,
      "የ": 1356,
      "ያ": 1357,
      "ይ": 1358,
      "ዮ": 1359,
      "ደ": 1360,
      "ድ": 1361,
      "ጅ": 1362,
      "ገ": 1363,
      "ጉ": 1364,
      "ጵ": 1365,
      "ፈ": 1366,
      "ፍ": 1367,
      "፡": 1368,
      "Ꭰ": 1369,
      "Ꭳ": 1370,
      "Ꭶ": 1371,
      "Ꭸ": 1372,
      "Ꭹ": 1373,
      "Ꮀ": 1374,
      "Ꮃ": 1375,
      "Ꮉ": 1376,
      "Ꮝ": 1377,
      "Ꮿ": 1378,
      "Ᏹ": 1379,
      "ᐊ": 1380,
      "ᑲ": 1381,
      "ᒡ": 1382,
      "ᓘ": 1383,
      "ᚢ": 1384,
      "ᚣ": 1385,
      "ᚦ": 1386,
      "ᚨ": 1387,
      "ᚩ": 1388,
      "ᚬ": 1389,
      "ᚱ": 1390,
      "ᚷ": 1391,
      "ᚹ": 1392,
      "ᚺ": 1393,
      "ᚻ": 1394,
      "ᚼ": 1395,
      "ᚾ": 1396,
      "ᛁ": 1397,
      "ᛃ": 1398,
      "ᛄ": 1399,
      "ᛇ": 1400,
      "ᛋ": 1401,
      "ᛏ": 1402,
      "ᛒ": 1403,
      "ᛗ": 1404,
      "ᛚ": 1405,
      "ᛝ": 1406,
      "ᛞ": 1407,
      "ᛟ": 1408,
      "ᛠ": 1409,
      "ក": 1410,
      "ខ": 1411,
      "គ": 1412,
      "ង": 1413,
      "ច": 1414,
      "ឆ": 1415,
      "ជ": 1416,
      "ញ": 1417,
      "ដ": 1418,
      "ឋ": 1419,
      "ណ": 1420,
      "ត": 1421,
      "ថ": 1422,
      "ទ": 1423,
      "ធ": 1424,
      "ន": 1425,
      "ប": 1426,
      "ព": 1427,
      "ភ": 1428,
      "ម": 1429,
      "យ": 1430,
      "រ": 1431,
      "ល": 1432,
      "វ": 1433,
      "ស": 1434,
      "ហ": 1435,
      "អ": 1436,
      "ឥ": 1437,
      "ឪ": 1438,
      "ឫ": 1439,
      "ឯ": 1440,
      "឵": 1441,
      "ា": 1442,
      "ិ": 1443,
      "ី": 1444,
      "ឹ": 1445,
      "ឺ": 1446,
      "ុ": 1447,
      "ូ": 1448,
      "ួ": 1449,
      "ៀ": 1450,
      "េ": 1451,
      "ែ": 1452,
      "ៃ": 1453,
      "ោ": 1454,
      "ៅ": 1455,
      "ំ": 1456,
      "ះ": 1457,
      "ៈ": 1458,
      "៉": 1459,
      "់": 1460,
      "្": 1461,
      "ᠠ": 1462,
      "ᠣ": 1463,
      "ᠨ": 1464,
      "ᠪ": 1465,
      "ᠮ": 1466,
      "ᠯ": 1467,
      "ᠰ": 1468,
      "ᠴ": 1469,
      "ᠵ": 1470,
      "ᠸ": 1471,
      "ᡝ": 1472,
      "ᡠ": 1473,
      "ᡥ": 1474,
      "ᡨ": 1475,
      "ᡳ": 1476,
      "ᡴ": 1477,
      "ᡵ": 1478,
      "ᴰ": 1479,
      "ᴷ": 1480,
      "ᴺ": 1481,
      "ᵀ": 1482,
      "ᵊ": 1483,
      "ᵑ": 1484,
      "ᵗ": 1485,
      "ᵘ": 1486,
      "ᵝ": 1487,
      "ᵻ": 1488,
      "ᵿ": 1489,
      "ᶑ": 1490,
      "ᶢ": 1491,
      "ᶦ": 1492,
      "ᶴ": 1493,
      "ᶷ": 1494,
      "᷄": 1495,
      "᷅": 1496,
      "᷆": 1497,
      "᷇": 1498,
      "᷈": 1499,
      "᷉": 1500,
      "᷽": 1501,
      "Ḍ": 1502,
      "ḍ": 1503,
      "Ḏ": 1504,
      "ḏ": 1505,
      "ḑ": 1506,
      "ḕ": 1507,
      "ḗ": 1508,
      "Ḣ": 1509,
      "Ḥ": 1510,
      "ḥ": 1511,
      "Ḩ": 1512,
      "ḩ": 1513,
      "Ḫ": 1514,
      "ḫ": 1515,
      "ḭ": 1516,
      "ḱ": 1517,
      "Ḳ": 1518,
      "ḳ": 1519,
      "ḵ": 1520,
      "ḷ": 1521,
      "ḹ": 1522,
      "ḻ": 1523,
      "ḿ": 1524,
      "ṁ": 1525,
      "ṃ": 1526,
      "ṅ": 1527,
      "ṇ": 1528,
      "ṉ": 1529,
      "ṓ": 1530,
      "ṙ": 1531,
      "Ṛ": 1532,
      "ṛ": 1533,
      "Ṝ": 1534,
      "ṝ": 1535,
      "ṟ": 1536,
      "Ṣ": 1537,
      "ṣ": 1538,
      "Ṧ": 1539,
      "Ṫ": 1540,
      "Ṭ": 1541,
      "ṭ": 1542,
      "Ṯ": 1543,
      "ṯ": 1544,
      "ṳ": 1545,
      "ṵ": 1546,
      "Ṽ": 1547,
      "ṽ": 1548,
      "ẃ": 1549,
      "Ẓ": 1550,
      "ẓ": 1551,
      "ẖ": 1552,
      "ạ": 1553,
      "ả": 1554,
      "Ấ": 1555,
      "ấ": 1556,
      "ầ": 1557,
      "Ẩ": 1558,
      "ẩ": 1559,
      "ẫ": 1560,
      "ậ": 1561,
      "ắ": 1562,
      "ằ": 1563,
      "ẵ": 1564,
      "ặ": 1565,
      "ẹ": 1566,
      "ẻ": 1567,
      "ẽ": 1568,
      "ế": 1569,
      "ề": 1570,
      "ể": 1571,
      "ễ": 1572,
      "ệ": 1573,
      "ỉ": 1574,
      "ị": 1575,
      "Ọ": 1576,
      "ọ": 1577,
      "ỏ": 1578,
      "Ố": 1579,
      "ố": 1580,
      "ồ": 1581,
      "ổ": 1582,
      "ỗ": 1583,
      "ộ": 1584,
      "ớ": 1585,
      "ờ": 1586,
      "ở": 1587,
      "ợ": 1588,
      "Ụ": 1589,
      "ụ": 1590,
      "ủ": 1591,
      "Ứ": 1592,
      "ứ": 1593,
      "ừ": 1594,
      "ử": 1595,
      "ữ": 1596,
      "ự": 1597,
      "ỳ": 1598,
      "ỵ": 1599,
      "ỹ": 1600,
      "ἀ": 1601,
      "ἁ": 1602,
      "ἂ": 1603,
      "ἃ": 1604,
      "ἄ": 1605,
      "ἅ": 1606,
      "Ἀ": 1607,
      "Ἁ": 1608,
      "Ἄ": 1609,
      "Ἅ": 1610,
      "ἐ": 1611,
      "ἑ": 1612,
      "ἒ": 1613,
      "ἔ": 1614,
      "ἕ": 1615,
      "Ἐ": 1616,
      "Ἑ": 1617,
      "Ἔ": 1618,
      "Ἕ": 1619,
      "ἠ": 1620,
      "ἡ": 1621,
      "ἢ": 1622,
      "ἤ": 1623,
      "ἥ": 1624,
      "ἦ": 1625,
      "ἧ": 1626,
      "Ἠ": 1627,
      "Ἡ": 1628,
      "ἰ": 1629,
      "ἱ": 1630,
      "ἲ": 1631,
      "ἳ": 1632,
      "ἴ": 1633,
      "ἵ": 1634,
      "ἶ": 1635,
      "ἷ": 1636,
      "Ἰ": 1637,
      "Ἱ": 1638,
      "Ἶ": 1639,
      "ὀ": 1640,
      "ὁ": 1641,
      "ὂ": 1642,
      "ὃ": 1643,
      "ὄ": 1644,
      "ὅ": 1645,
      "Ὁ": 1646,
      "Ὄ": 1647,
      "ὐ": 1648,
      "ὑ": 1649,
      "ὔ": 1650,
      "ὕ": 1651,
      "ὖ": 1652,
      "ὗ": 1653,
      "Ὕ": 1654,
      "ὡ": 1655,
      "ὣ": 1656,
      "ὤ": 1657,
      "ὥ": 1658,
      "ὦ": 1659,
      "Ὠ": 1660,
      "Ὡ": 1661,
      "Ὦ": 1662,
      "ὰ": 1663,
      "ὲ": 1664,
      "ὴ": 1665,
      "ὶ": 1666,
      "ὸ": 1667,
      "ὺ": 1668,
      "ὼ": 1669,
      "ᾓ": 1670,
      "ᾰ": 1671,
      "ᾳ": 1672,
      "ᾶ": 1673,
      "ᾷ": 1674,
      "᾿": 1675,
      "ῆ": 1676,
      "ῇ": 1677,
      "Ὲ": 1678,
      "ῐ": 1679,
      "ῑ": 1680,
      "ῖ": 1681,
      "Ὶ": 1682,
      "ῠ": 1683,
      "ῥ": 1684,
      "ῦ": 1685,
      "Ῥ": 1686,
      "ῳ": 1687,
      "ῶ": 1688,
      "ῷ": 1689,
      "​": 1690,
      "‌": 1691,
      "‍": 1692,
      "‐": 1693,
      "‑": 1694,
      "‒": 1695,
      "–": 1696,
      "—": 1697,
      "―": 1698,
      "‖": 1699,
      "‘": 1700,
      "’": 1701,
      "‚": 1702,
      "‛": 1703,
      "“": 1704,
      "”": 1705,
      "„": 1706,
      "‟": 1707,
      "†": 1708,
      "‡": 1709,
      "•": 1710,
      "…": 1711,
      "‰": 1712,
      "′": 1713,
      "″": 1714,
      "※": 1715,
      "‼": 1716,
      "‿": 1717,
      "⁄": 1718,
      "⁊": 1719,
      "⁠": 1720,
      "⁡": 1721,
      "⁰": 1722,
      "⁺": 1723,
      "ⁿ": 1724,
      "₁": 1725,
      "₂": 1726,
      "₃": 1727,
      "₄": 1728,
      "₡": 1729,
      "₣": 1730,
      "₤": 1731,
      "₦": 1732,
      "₧": 1733,
      "₨": 1734,
      "₩": 1735,
      "₫": 1736,
      "€": 1737,
      "₱": 1738,
      "₴": 1739,
      "₹": 1740,
      "ℂ": 1741,
      "℃": 1742,
      "ℓ": 1743,
      "ℕ": 1744,
      "№": 1745,
      "ℛ": 1746,
      "ℝ": 1747,
      "℞": 1748,
      "™": 1749,
      "ℤ": 1750,
      "℥": 1751,
      "ℵ": 1752,
      "⅓": 1753,
      "⅔": 1754,
      "⅙": 1755,
      "⅛": 1756,
      "⅜": 1757,
      "⅝": 1758,
      "⅞": 1759,
      "Ⅱ": 1760,
      "←": 1761,
      "↑": 1762,
      "→": 1763,
      "↓": 1764,
      "↔": 1765,
      "↗": 1766,
      "↘": 1767,
      "↦": 1768,
      "↪": 1769,
      "↵": 1770,
      "⇄": 1771,
      "⇌": 1772,
      "⇒": 1773,
      "⇪": 1774,
      "∀": 1775,
      "∂": 1776,
      "∅": 1777,
      "∆": 1778,
      "∇": 1779,
      "∈": 1780,
      "∉": 1781,
      "∊": 1782,
      "∑": 1783,
      "−": 1784,
      "∕": 1785,
      "∖": 1786,
      "∗": 1787,
      "∘": 1788,
      "√": 1789,
      "∝": 1790,
      "∞": 1791,
      "∤": 1792,
      "∩": 1793,
      "∪": 1794,
      "∫": 1795,
      "∴": 1796,
      "∼": 1797,
      "≈": 1798,
      "≠": 1799,
      "≡": 1800,
      "≢": 1801,
      "≤": 1802,
      "≥": 1803,
      "≪": 1804,
      "≫": 1805,
      "≲": 1806,
      "⊂": 1807,
      "⊕": 1808,
      "⊗": 1809,
      "⊙": 1810,
      "⊞": 1811,
      "⊢": 1812,
      "⊣": 1813,
      "⊥": 1814,
      "⋅": 1815,
      "⋆": 1816,
      "⋯": 1817,
      "⌊": 1818,
      "⌋": 1819,
      "⌘": 1820,
      "①": 1821,
      "②": 1822,
      "③": 1823,
      "④": 1824,
      "⑤": 1825,
      "⑥": 1826,
      "⑦": 1827,
      "⑧": 1828,
      "─": 1829,
      "█": 1830,
      "▢": 1831,
      "▲": 1832,
      "▼": 1833,
      "○": 1834,
      "●": 1835,
      "◦": 1836,
      "☄": 1837,
      "★": 1838,
      "☆": 1839,
      "☉": 1840,
      "☧": 1841,
      "☫": 1842,
      "☭": 1843,
      "☽": 1844,
      "☾": 1845,
      "♀": 1846,
      "♂": 1847,
      "♄": 1848,
      "♅": 1849,
      "♆": 1850,
      "♇": 1851,
      "♈": 1852,
      "♉": 1853,
      "♠": 1854,
      "♣": 1855,
      "♥": 1856,
      "♦": 1857,
      "♩": 1858,
      "♪": 1859,
      "♭": 1860,
      "♮": 1861,
      "♯": 1862,
      "⚳": 1863,
      "⚴": 1864,
      "⚵": 1865,
      "⛢": 1866,
      "✡": 1867,
      "✱": 1868,
      "❄": 1869,
      "❅": 1870,
      "❆": 1871,
      "❤": 1872,
      "⟦": 1873,
      "⟧": 1874,
      "⟨": 1875,
      "⟩": 1876,
      "⥇": 1877,
      "⩽": 1878,
      "⫶": 1879,
      "ⱱ": 1880,
      "ⲁ": 1881,
      "ⲛ": 1882,
      "ⲥ": 1883,
      "ⲧ": 1884,
      "ⲩ": 1885,
      "Ⲫ": 1886,
      "ⲱ": 1887,
      "ⴰ": 1888,
      "ⴳ": 1889,
      "ⴷ": 1890,
      "ⴻ": 1891,
      "ⴼ": 1892,
      "ⴽ": 1893,
      "ⵃ": 1894,
      "ⵇ": 1895,
      "ⵉ": 1896,
      "ⵍ": 1897,
      "ⵎ": 1898,
      "ⵏ": 1899,
      "ⵓ": 1900,
      "ⵔ": 1901,
      "ⵕ": 1902,
      "ⵖ": 1903,
      "ⵙ": 1904,
      "ⵛ": 1905,
      "ⵜ": 1906,
      "ⵡ": 1907,
      "ⵢ": 1908,
      "ⵣ": 1909,
      "⸨": 1910,
      "⸩": 1911,
      "、": 1912,
      "。": 1913,
      "々": 1914,
      "〈": 1915,
      "〉": 1916,
      "《": 1917,
      "》": 1918,
      "「": 1919,
      "」": 1920,
      "『": 1921,
      "』": 1922,
      "【": 1923,
      "】": 1924,
      "〒": 1925,
      "〜": 1926,
      "あ": 1927,
      "ぃ": 1928,
      "い": 1929,
      "ぅ": 1930,
      "う": 1931,
      "ぇ": 1932,
      "え": 1933,
      "ぉ": 1934,
      "お": 1935,
      "か": 1936,
      "が": 1937,
      "き": 1938,
      "ぎ": 1939,
      "く": 1940,
      "ぐ": 1941,
      "け": 1942,
      "げ": 1943,
      "こ": 1944,
      "ご": 1945,
      "さ": 1946,
      "ざ": 1947,
      "し": 1948,
      "じ": 1949,
      "す": 1950,
      "ず": 1951,
      "せ": 1952,
      "ぜ": 1953,
      "そ": 1954,
      "ぞ": 1955,
      "た": 1956,
      "だ": 1957,
      "ち": 1958,
      "っ": 1959,
      "つ": 1960,
      "づ": 1961,
      "て": 1962,
      "で": 1963,
      "と": 1964,
      "ど": 1965,
      "な": 1966,
      "に": 1967,
      "ぬ": 1968,
      "ね": 1969,
      "の": 1970,
      "は": 1971,
      "ば": 1972,
      "ぱ": 1973,
      "ひ": 1974,
      "び": 1975,
      "ぴ": 1976,
      "ふ": 1977,
      "ぶ": 1978,
      "ぷ": 1979,
      "へ": 1980,
      "べ": 1981,
      "ぺ": 1982,
      "ほ": 1983,
      "ぼ": 1984,
      "ぽ": 1985,
      "ま": 1986,
      "み": 1987,
      "む": 1988,
      "め": 1989,
      "も": 1990,
      "ゃ": 1991,
      "や": 1992,
      "ゅ": 1993,
      "ゆ": 1994,
      "ょ": 1995,
      "よ": 1996,
      "ら": 1997,
      "り": 1998,
      "る": 1999,
      "れ": 2000,
      "ろ": 2001,
      "わ": 2002,
      "ゑ": 2003,
      "を": 2004,
      "ん": 2005,
      "ァ": 2006,
      "ア": 2007,
      "ィ": 2008,
      "イ": 2009,
      "ゥ": 2010,
      "ウ": 2011,
      "ェ": 2012,
      "エ": 2013,
      "ォ": 2014,
      "オ": 2015,
      "カ": 2016,
      "ガ": 2017,
      "キ": 2018,
      "ギ": 2019,
      "ク": 2020,
      "グ": 2021,
      "ケ": 2022,
      "ゲ": 2023,
      "コ": 2024,
      "ゴ": 2025,
      "サ": 2026,
      "ザ": 2027,
      "シ": 2028,
      "ジ": 2029,
      "ス": 2030,
      "ズ": 2031,
      "セ": 2032,
      "ゼ": 2033,
      "ソ": 2034,
      "ゾ": 2035,
      "タ": 2036,
      "ダ": 2037,
      "チ": 2038,
      "ヂ": 2039,
      "ッ": 2040,
      "ツ": 2041,
      "ヅ": 2042,
      "テ": 2043,
      "デ": 2044,
      "ト": 2045,
      "ド": 2046,
      "ナ": 2047,
      "ニ": 2048,
      "ヌ": 2049,
      "ネ": 2050,
      "ノ": 2051,
      "ハ": 2052,
      "バ": 2053,
      "パ": 2054,
      "ヒ": 2055,
      "ビ": 2056,
      "ピ": 2057,
      "フ": 2058,
      "ブ": 2059,
      "プ": 2060,
      "ヘ": 2061,
      "ベ": 2062,
      "ペ": 2063,
      "ホ": 2064,
      "ボ": 2065,
      "ポ": 2066,
      "マ": 2067,
      "ミ": 2068,
      "ム": 2069,
      "メ": 2070,
      "モ": 2071,
      "ャ": 2072,
      "ヤ": 2073,
      "ュ": 2074,
      "ユ": 2075,
      "ョ": 2076,
      "ヨ": 2077,
      "ラ": 2078,
      "リ": 2079,
      "ル": 2080,
      "レ": 2081,
      "ロ": 2082,
      "ワ": 2083,
      "ヲ": 2084,
      "ン": 2085,
      "ヴ": 2086,
      "ヶ": 2087,
      "・": 2088,
      "ー": 2089,
      "一": 2090,
      "丁": 2091,
      "七": 2092,
      "万": 2093,
      "丈": 2094,
      "三": 2095,
      "上": 2096,
      "下": 2097,
      "不": 2098,
      "与": 2099,
      "丑": 2100,
      "且": 2101,
      "世": 2102,
      "丘": 2103,
      "丙": 2104,
      "东": 2105,
      "丝": 2106,
      "丞": 2107,
      "両": 2108,
      "丨": 2109,
      "个": 2110,
      "中": 2111,
      "丶": 2112,
      "丸": 2113,
      "丹": 2114,
      "为": 2115,
      "主": 2116,
      "丽": 2117,
      "丿": 2118,
      "乃": 2119,
      "久": 2120,
      "么": 2121,
      "义": 2122,
      "之": 2123,
      "乌": 2124,
      "乎": 2125,
      "乐": 2126,
      "乘": 2127,
      "乙": 2128,
      "乚": 2129,
      "乛": 2130,
      "九": 2131,
      "也": 2132,
      "习": 2133,
      "书": 2134,
      "乩": 2135,
      "买": 2136,
      "乱": 2137,
      "乳": 2138,
      "乾": 2139,
      "亀": 2140,
      "亅": 2141,
      "了": 2142,
      "予": 2143,
      "争": 2144,
      "事": 2145,
      "二": 2146,
      "云": 2147,
      "五": 2148,
      "井": 2149,
      "亚": 2150,
      "些": 2151,
      "亜": 2152,
      "亞": 2153,
      "亡": 2154,
      "交": 2155,
      "亦": 2156,
      "亨": 2157,
      "京": 2158,
      "亮": 2159,
      "亰": 2160,
      "人": 2161,
      "什": 2162,
      "仁": 2163,
      "仇": 2164,
      "今": 2165,
      "介": 2166,
      "仔": 2167,
      "仕": 2168,
      "他": 2169,
      "付": 2170,
      "仙": 2171,
      "代": 2172,
      "令": 2173,
      "以": 2174,
      "仪": 2175,
      "们": 2176,
      "仮": 2177,
      "仰": 2178,
      "仲": 2179,
      "件": 2180,
      "任": 2181,
      "份": 2182,
      "伊": 2183,
      "伏": 2184,
      "伐": 2185,
      "休": 2186,
      "会": 2187,
      "伝": 2188,
      "伟": 2189,
      "传": 2190,
      "伪": 2191,
      "伯": 2192,
      "伴": 2193,
      "伸": 2194,
      "似": 2195,
      "佃": 2196,
      "但": 2197,
      "位": 2198,
      "住": 2199,
      "佐": 2200,
      "佑": 2201,
      "体": 2202,
      "何": 2203,
      "余": 2204,
      "佛": 2205,
      "作": 2206,
      "你": 2207,
      "佳": 2208,
      "併": 2209,
      "使": 2210,
      "來": 2211,
      "例": 2212,
      "侍": 2213,
      "侗": 2214,
      "供": 2215,
      "依": 2216,
      "侠": 2217,
      "侨": 2218,
      "侬": 2219,
      "侯": 2220,
      "係": 2221,
      "促": 2222,
      "俄": 2223,
      "俊": 2224,
      "保": 2225,
      "信": 2226,
      "俭": 2227,
      "修": 2228,
      "俱": 2229,
      "俳": 2230,
      "倉": 2231,
      "個": 2232,
      "們": 2233,
      "候": 2234,
      "借": 2235,
      "倪": 2236,
      "倫": 2237,
      "倭": 2238,
      "偃": 2239,
      "假": 2240,
      "偏": 2241,
      "健": 2242,
      "側": 2243,
      "偵": 2244,
      "偽": 2245,
      "傀": 2246,
      "傅": 2247,
      "傑": 2248,
      "傘": 2249,
      "備": 2250,
      "催": 2251,
      "傭": 2252,
      "傳": 2253,
      "傷": 2254,
      "像": 2255,
      "僑": 2256,
      "僕": 2257,
      "僧": 2258,
      "儀": 2259,
      "億": 2260,
      "儒": 2261,
      "儚": 2262,
      "儡": 2263,
      "優": 2264,
      "儿": 2265,
      "允": 2266,
      "元": 2267,
      "充": 2268,
      "兆": 2269,
      "先": 2270,
      "光": 2271,
      "克": 2272,
      "免": 2273,
      "兒": 2274,
      "兔": 2275,
      "兜": 2276,
      "入": 2277,
      "內": 2278,
      "全": 2279,
      "兩": 2280,
      "八": 2281,
      "公": 2282,
      "六": 2283,
      "兰": 2284,
      "共": 2285,
      "关": 2286,
      "兵": 2287,
      "其": 2288,
      "具": 2289,
      "典": 2290,
      "养": 2291,
      "冀": 2292,
      "内": 2293,
      "円": 2294,
      "冉": 2295,
      "册": 2296,
      "再": 2297,
      "冒": 2298,
      "写": 2299,
      "军": 2300,
      "冠": 2301,
      "冥": 2302,
      "冫": 2303,
      "冬": 2304,
      "冯": 2305,
      "决": 2306,
      "冴": 2307,
      "冶": 2308,
      "冷": 2309,
      "净": 2310,
      "准": 2311,
      "凌": 2312,
      "凤": 2313,
      "処": 2314,
      "凪": 2315,
      "凯": 2316,
      "凰": 2317,
      "凱": 2318,
      "凶": 2319,
      "凹": 2320,
      "出": 2321,
      "刀": 2322,
      "刃": 2323,
      "分": 2324,
      "切": 2325,
      "刊": 2326,
      "划": 2327,
      "列": 2328,
      "刘": 2329,
      "初": 2330,
      "判": 2331,
      "別": 2332,
      "利": 2333,
      "别": 2334,
      "到": 2335,
      "制": 2336,
      "刷": 2337,
      "券": 2338,
      "刹": 2339,
      "刺": 2340,
      "刻": 2341,
      "則": 2342,
      "前": 2343,
      "剑": 2344,
      "剛": 2345,
      "剣": 2346,
      "剧": 2347,
      "剩": 2348,
      "副": 2349,
      "割": 2350,
      "創": 2351,
      "劃": 2352,
      "劇": 2353,
      "劉": 2354,
      "劍": 2355,
      "力": 2356,
      "办": 2357,
      "功": 2358,
      "加": 2359,
      "劣": 2360,
      "动": 2361,
      "助": 2362,
      "劳": 2363,
      "勃": 2364,
      "勅": 2365,
      "勇": 2366,
      "勒": 2367,
      "動": 2368,
      "勘": 2369,
      "務": 2370,
      "勝": 2371,
      "勞": 2372,
      "勢": 2373,
      "勳": 2374,
      "勾": 2375,
      "包": 2376,
      "化": 2377,
      "北": 2378,
      "匠": 2379,
      "匹": 2380,
      "区": 2381,
      "医": 2382,
      "區": 2383,
      "十": 2384,
      "千": 2385,
      "升": 2386,
      "午": 2387,
      "半": 2388,
      "华": 2389,
      "协": 2390,
      "卐": 2391,
      "卒": 2392,
      "卓": 2393,
      "協": 2394,
      "单": 2395,
      "卖": 2396,
      "南": 2397,
      "博": 2398,
      "卜": 2399,
      "占": 2400,
      "卡": 2401,
      "卢": 2402,
      "卦": 2403,
      "卫": 2404,
      "印": 2405,
      "危": 2406,
      "即": 2407,
      "却": 2408,
      "卸": 2409,
      "卿": 2410,
      "厂": 2411,
      "厄": 2412,
      "历": 2413,
      "厘": 2414,
      "厚": 2415,
      "原": 2416,
      "厥": 2417,
      "厦": 2418,
      "厩": 2419,
      "去": 2420,
      "县": 2421,
      "参": 2422,
      "參": 2423,
      "叉": 2424,
      "及": 2425,
      "友": 2426,
      "双": 2427,
      "反": 2428,
      "収": 2429,
      "发": 2430,
      "叔": 2431,
      "取": 2432,
      "受": 2433,
      "变": 2434,
      "叛": 2435,
      "叠": 2436,
      "叡": 2437,
      "叢": 2438,
      "口": 2439,
      "古": 2440,
      "句": 2441,
      "只": 2442,
      "叫": 2443,
      "召": 2444,
      "可": 2445,
      "台": 2446,
      "史": 2447,
      "右": 2448,
      "叶": 2449,
      "号": 2450,
      "司": 2451,
      "合": 2452,
      "吉": 2453,
      "同": 2454,
      "名": 2455,
      "后": 2456,
      "向": 2457,
      "吕": 2458,
      "君": 2459,
      "吞": 2460,
      "吟": 2461,
      "吧": 2462,
      "启": 2463,
      "吳": 2464,
      "吴": 2465,
      "吸": 2466,
      "吹": 2467,
      "吾": 2468,
      "呂": 2469,
      "呉": 2470,
      "告": 2471,
      "周": 2472,
      "呪": 2473,
      "味": 2474,
      "呼": 2475,
      "命": 2476,
      "咆": 2477,
      "和": 2478,
      "咖": 2479,
      "咙": 2480,
      "咫": 2481,
      "咲": 2482,
      "咸": 2483,
      "哀": 2484,
      "品": 2485,
      "哈": 2486,
      "哉": 2487,
      "响": 2488,
      "員": 2489,
      "哥": 2490,
      "哮": 2491,
      "哲": 2492,
      "唄": 2493,
      "唐": 2494,
      "唯": 2495,
      "唱": 2496,
      "商": 2497,
      "問": 2498,
      "啓": 2499,
      "啟": 2500,
      "啡": 2501,
      "善": 2502,
      "喇": 2503,
      "喋": 2504,
      "喚": 2505,
      "喜": 2506,
      "喝": 2507,
      "喬": 2508,
      "嘉": 2509,
      "嘘": 2510,
      "噛": 2511,
      "器": 2512,
      "嚣": 2513,
      "嚴": 2514,
      "囁": 2515,
      "囂": 2516,
      "囃": 2517,
      "囚": 2518,
      "四": 2519,
      "回": 2520,
      "因": 2521,
      "团": 2522,
      "団": 2523,
      "図": 2524,
      "国": 2525,
      "图": 2526,
      "圈": 2527,
      "國": 2528,
      "圍": 2529,
      "圏": 2530,
      "園": 2531,
      "圓": 2532,
      "圖": 2533,
      "土": 2534,
      "圣": 2535,
      "圧": 2536,
      "在": 2537,
      "地": 2538,
      "圻": 2539,
      "坂": 2540,
      "均": 2541,
      "坊": 2542,
      "坑": 2543,
      "块": 2544,
      "坚": 2545,
      "坝": 2546,
      "坡": 2547,
      "坤": 2548,
      "坪": 2549,
      "型": 2550,
      "垣": 2551,
      "城": 2552,
      "埔": 2553,
      "域": 2554,
      "執": 2555,
      "培": 2556,
      "基": 2557,
      "堀": 2558,
      "堂": 2559,
      "堅": 2560,
      "堆": 2561,
      "堡": 2562,
      "堤": 2563,
      "堯": 2564,
      "報": 2565,
      "場": 2566,
      "塊": 2567,
      "塔": 2568,
      "塘": 2569,
      "塚": 2570,
      "塞": 2571,
      "塩": 2572,
      "填": 2573,
      "塵": 2574,
      "境": 2575,
      "墓": 2576,
      "墙": 2577,
      "增": 2578,
      "壁": 2579,
      "壌": 2580,
      "壓": 2581,
      "壟": 2582,
      "壤": 2583,
      "士": 2584,
      "壬": 2585,
      "壮": 2586,
      "壯": 2587,
      "声": 2588,
      "壱": 2589,
      "売": 2590,
      "壳": 2591,
      "壷": 2592,
      "壽": 2593,
      "处": 2594,
      "备": 2595,
      "変": 2596,
      "复": 2597,
      "夏": 2598,
      "夕": 2599,
      "外": 2600,
      "多": 2601,
      "夜": 2602,
      "够": 2603,
      "夢": 2604,
      "夤": 2605,
      "大": 2606,
      "天": 2607,
      "太": 2608,
      "夫": 2609,
      "央": 2610,
      "失": 2611,
      "头": 2612,
      "夷": 2613,
      "奇": 2614,
      "奈": 2615,
      "奉": 2616,
      "奎": 2617,
      "奏": 2618,
      "奐": 2619,
      "契": 2620,
      "奔": 2621,
      "套": 2622,
      "奥": 2623,
      "奧": 2624,
      "奪": 2625,
      "女": 2626,
      "奴": 2627,
      "好": 2628,
      "如": 2629,
      "妃": 2630,
      "妇": 2631,
      "妍": 2632,
      "妖": 2633,
      "妙": 2634,
      "妮": 2635,
      "妹": 2636,
      "妻": 2637,
      "姉": 2638,
      "姊": 2639,
      "始": 2640,
      "姑": 2641,
      "委": 2642,
      "姚": 2643,
      "姥": 2644,
      "姦": 2645,
      "姫": 2646,
      "姬": 2647,
      "姿": 2648,
      "威": 2649,
      "娘": 2650,
      "娜": 2651,
      "婁": 2652,
      "婆": 2653,
      "婚": 2654,
      "婷": 2655,
      "嫁": 2656,
      "嬢": 2657,
      "嬴": 2658,
      "子": 2659,
      "孔": 2660,
      "字": 2661,
      "存": 2662,
      "孙": 2663,
      "孛": 2664,
      "孝": 2665,
      "孟": 2666,
      "季": 2667,
      "孤": 2668,
      "学": 2669,
      "孩": 2670,
      "孫": 2671,
      "孵": 2672,
      "學": 2673,
      "宁": 2674,
      "宅": 2675,
      "宇": 2676,
      "守": 2677,
      "安": 2678,
      "宋": 2679,
      "完": 2680,
      "宏": 2681,
      "宗": 2682,
      "官": 2683,
      "宙": 2684,
      "定": 2685,
      "宜": 2686,
      "宝": 2687,
      "实": 2688,
      "実": 2689,
      "客": 2690,
      "宣": 2691,
      "室": 2692,
      "宫": 2693,
      "宮": 2694,
      "宴": 2695,
      "宵": 2696,
      "家": 2697,
      "宸": 2698,
      "容": 2699,
      "宿": 2700,
      "寂": 2701,
      "寄": 2702,
      "密": 2703,
      "寇": 2704,
      "富": 2705,
      "寔": 2706,
      "寗": 2707,
      "寛": 2708,
      "寝": 2709,
      "寞": 2710,
      "察": 2711,
      "寧": 2712,
      "寨": 2713,
      "審": 2714,
      "寬": 2715,
      "寵": 2716,
      "寶": 2717,
      "寸": 2718,
      "对": 2719,
      "寺": 2720,
      "寻": 2721,
      "対": 2722,
      "寿": 2723,
      "封": 2724,
      "射": 2725,
      "将": 2726,
      "將": 2727,
      "尉": 2728,
      "尊": 2729,
      "尋": 2730,
      "對": 2731,
      "導": 2732,
      "小": 2733,
      "少": 2734,
      "尔": 2735,
      "尚": 2736,
      "尧": 2737,
      "就": 2738,
      "尸": 2739,
      "尹": 2740,
      "尺": 2741,
      "尼": 2742,
      "尽": 2743,
      "尾": 2744,
      "局": 2745,
      "居": 2746,
      "届": 2747,
      "屋": 2748,
      "屍": 2749,
      "屑": 2750,
      "展": 2751,
      "屠": 2752,
      "層": 2753,
      "屬": 2754,
      "屯": 2755,
      "山": 2756,
      "屿": 2757,
      "岐": 2758,
      "岑": 2759,
      "岚": 2760,
      "岛": 2761,
      "岡": 2762,
      "岩": 2763,
      "岬": 2764,
      "岭": 2765,
      "岳": 2766,
      "岸": 2767,
      "峰": 2768,
      "島": 2769,
      "崇": 2770,
      "崎": 2771,
      "崔": 2772,
      "崖": 2773,
      "嵐": 2774,
      "嶋": 2775,
      "嶺": 2776,
      "嶼": 2777,
      "巂": 2778,
      "巖": 2779,
      "川": 2780,
      "州": 2781,
      "巡": 2782,
      "工": 2783,
      "左": 2784,
      "巨": 2785,
      "巫": 2786,
      "差": 2787,
      "己": 2788,
      "巳": 2789,
      "巴": 2790,
      "巻": 2791,
      "币": 2792,
      "市": 2793,
      "布": 2794,
      "帆": 2795,
      "师": 2796,
      "希": 2797,
      "帕": 2798,
      "帖": 2799,
      "帝": 2800,
      "帥": 2801,
      "带": 2802,
      "師": 2803,
      "帮": 2804,
      "帰": 2805,
      "帶": 2806,
      "常": 2807,
      "幕": 2808,
      "幡": 2809,
      "幣": 2810,
      "干": 2811,
      "平": 2812,
      "年": 2813,
      "幸": 2814,
      "幻": 2815,
      "幽": 2816,
      "广": 2817,
      "庁": 2818,
      "広": 2819,
      "庄": 2820,
      "庆": 2821,
      "庇": 2822,
      "序": 2823,
      "库": 2824,
      "底": 2825,
      "庖": 2826,
      "店": 2827,
      "庙": 2828,
      "庚": 2829,
      "府": 2830,
      "度": 2831,
      "座": 2832,
      "庫": 2833,
      "庭": 2834,
      "庵": 2835,
      "康": 2836,
      "廉": 2837,
      "廊": 2838,
      "廖": 2839,
      "廟": 2840,
      "廣": 2841,
      "廬": 2842,
      "延": 2843,
      "廷": 2844,
      "建": 2845,
      "廻": 2846,
      "廿": 2847,
      "开": 2848,
      "弁": 2849,
      "式": 2850,
      "弐": 2851,
      "弓": 2852,
      "弔": 2853,
      "引": 2854,
      "弘": 2855,
      "弟": 2856,
      "张": 2857,
      "弥": 2858,
      "弦": 2859,
      "弧": 2860,
      "弱": 2861,
      "張": 2862,
      "強": 2863,
      "弹": 2864,
      "强": 2865,
      "弾": 2866,
      "彌": 2867,
      "当": 2868,
      "录": 2869,
      "彖": 2870,
      "彙": 2871,
      "形": 2872,
      "彦": 2873,
      "彩": 2874,
      "彪": 2875,
      "彬": 2876,
      "彭": 2877,
      "影": 2878,
      "役": 2879,
      "彼": 2880,
      "征": 2881,
      "径": 2882,
      "待": 2883,
      "律": 2884,
      "後": 2885,
      "徐": 2886,
      "徒": 2887,
      "得": 2888,
      "從": 2889,
      "御": 2890,
      "復": 2891,
      "微": 2892,
      "徳": 2893,
      "德": 2894,
      "徹": 2895,
      "徽": 2896,
      "心": 2897,
      "必": 2898,
      "忍": 2899,
      "志": 2900,
      "忘": 2901,
      "応": 2902,
      "忠": 2903,
      "快": 2904,
      "念": 2905,
      "怀": 2906,
      "怎": 2907,
      "怒": 2908,
      "怖": 2909,
      "思": 2910,
      "怡": 2911,
      "急": 2912,
      "性": 2913,
      "怨": 2914,
      "怪": 2915,
      "总": 2916,
      "恆": 2917,
      "恋": 2918,
      "恐": 2919,
      "恒": 2920,
      "恢": 2921,
      "恥": 2922,
      "恩": 2923,
      "恭": 2924,
      "息": 2925,
      "恵": 2926,
      "恼": 2927,
      "悔": 2928,
      "悟": 2929,
      "悠": 2930,
      "悦": 2931,
      "悪": 2932,
      "悫": 2933,
      "悲": 2934,
      "悼": 2935,
      "情": 2936,
      "惑": 2937,
      "惟": 2938,
      "惠": 2939,
      "惡": 2940,
      "想": 2941,
      "愁": 2942,
      "愍": 2943,
      "意": 2944,
      "愚": 2945,
      "愛": 2946,
      "感": 2947,
      "愽": 2948,
      "慈": 2949,
      "態": 2950,
      "慎": 2951,
      "慧": 2952,
      "慰": 2953,
      "慶": 2954,
      "憂": 2955,
      "憎": 2956,
      "憑": 2957,
      "憲": 2958,
      "憶": 2959,
      "應": 2960,
      "懍": 2961,
      "懷": 2962,
      "戈": 2963,
      "戊": 2964,
      "戎": 2965,
      "成": 2966,
      "我": 2967,
      "战": 2968,
      "戦": 2969,
      "戯": 2970,
      "戰": 2971,
      "戴": 2972,
      "户": 2973,
      "戸": 2974,
      "房": 2975,
      "所": 2976,
      "扁": 2977,
      "扇": 2978,
      "扈": 2979,
      "扉": 2980,
      "手": 2981,
      "才": 2982,
      "打": 2983,
      "托": 2984,
      "扶": 2985,
      "找": 2986,
      "承": 2987,
      "技": 2988,
      "抄": 2989,
      "抓": 2990,
      "投": 2991,
      "抜": 2992,
      "択": 2993,
      "护": 2994,
      "报": 2995,
      "披": 2996,
      "抱": 2997,
      "抵": 2998,
      "担": 2999,
      "拉": 3000,
      "拍": 3001,
      "拏": 3002,
      "拐": 3003,
      "拖": 3004,
      "拘": 3005,
      "招": 3006,
      "拜": 3007,
      "拟": 3008,
      "拥": 3009,
      "括": 3010,
      "拱": 3011,
      "拳": 3012,
      "拾": 3013,
      "持": 3014,
      "挂": 3015,
      "指": 3016,
      "挑": 3017,
      "挥": 3018,
      "振": 3019,
      "据": 3020,
      "捷": 3021,
      "授": 3022,
      "掛": 3023,
      "採": 3024,
      "探": 3025,
      "控": 3026,
      "掲": 3027,
      "描": 3028,
      "提": 3029,
      "揚": 3030,
      "換": 3031,
      "援": 3032,
      "揺": 3033,
      "摂": 3034,
      "摩": 3035,
      "摸": 3036,
      "撃": 3037,
      "撒": 3038,
      "撞": 3039,
      "播": 3040,
      "撲": 3041,
      "操": 3042,
      "攝": 3043,
      "支": 3044,
      "收": 3045,
      "改": 3046,
      "攻": 3047,
      "放": 3048,
      "政": 3049,
      "故": 3050,
      "敏": 3051,
      "救": 3052,
      "教": 3053,
      "敢": 3054,
      "散": 3055,
      "敦": 3056,
      "敬": 3057,
      "数": 3058,
      "敵": 3059,
      "敷": 3060,
      "數": 3061,
      "文": 3062,
      "斉": 3063,
      "斎": 3064,
      "斗": 3065,
      "料": 3066,
      "斜": 3067,
      "斤": 3068,
      "斩": 3069,
      "斬": 3070,
      "断": 3071,
      "斯": 3072,
      "新": 3073,
      "方": 3074,
      "於": 3075,
      "施": 3076,
      "旅": 3077,
      "旋": 3078,
      "族": 3079,
      "旗": 3080,
      "无": 3081,
      "日": 3082,
      "旦": 3083,
      "旧": 3084,
      "早": 3085,
      "旭": 3086,
      "时": 3087,
      "旺": 3088,
      "昂": 3089,
      "昇": 3090,
      "昌": 3091,
      "明": 3092,
      "昏": 3093,
      "易": 3094,
      "昔": 3095,
      "星": 3096,
      "映": 3097,
      "春": 3098,
      "昭": 3099,
      "是": 3100,
      "昼": 3101,
      "時": 3102,
      "晉": 3103,
      "晋": 3104,
      "晒": 3105,
      "普": 3106,
      "景": 3107,
      "晴": 3108,
      "晶": 3109,
      "智": 3110,
      "暁": 3111,
      "暂": 3112,
      "暖": 3113,
      "暗": 3114,
      "暦": 3115,
      "暮": 3116,
      "暴": 3117,
      "曆": 3118,
      "曜": 3119,
      "曦": 3120,
      "曲": 3121,
      "更": 3122,
      "書": 3123,
      "曹": 3124,
      "曼": 3125,
      "曾": 3126,
      "最": 3127,
      "會": 3128,
      "月": 3129,
      "有": 3130,
      "朋": 3131,
      "服": 3132,
      "朏": 3133,
      "朔": 3134,
      "朗": 3135,
      "望": 3136,
      "朝": 3137,
      "期": 3138,
      "朧": 3139,
      "木": 3140,
      "未": 3141,
      "末": 3142,
      "本": 3143,
      "札": 3144,
      "朱": 3145,
      "朴": 3146,
      "朵": 3147,
      "机": 3148,
      "朽": 3149,
      "杀": 3150,
      "杂": 3151,
      "权": 3152,
      "李": 3153,
      "杏": 3154,
      "材": 3155,
      "村": 3156,
      "杖": 3157,
      "杜": 3158,
      "束": 3159,
      "条": 3160,
      "来": 3161,
      "杨": 3162,
      "杯": 3163,
      "東": 3164,
      "杲": 3165,
      "松": 3166,
      "板": 3167,
      "极": 3168,
      "析": 3169,
      "林": 3170,
      "枚": 3171,
      "果": 3172,
      "枝": 3173,
      "枭": 3174,
      "枯": 3175,
      "架": 3176,
      "柆": 3177,
      "柏": 3178,
      "柔": 3179,
      "柚": 3180,
      "柩": 3181,
      "柱": 3182,
      "柳": 3183,
      "柴": 3184,
      "査": 3185,
      "栄": 3186,
      "标": 3187,
      "栈": 3188,
      "树": 3189,
      "栖": 3190,
      "栗": 3191,
      "栞": 3192,
      "校": 3193,
      "株": 3194,
      "样": 3195,
      "核": 3196,
      "根": 3197,
      "格": 3198,
      "栽": 3199,
      "栾": 3200,
      "桀": 3201,
      "桂": 3202,
      "桃": 3203,
      "案": 3204,
      "桎": 3205,
      "桐": 3206,
      "桑": 3207,
      "桓": 3208,
      "桜": 3209,
      "桥": 3210,
      "桧": 3211,
      "梁": 3212,
      "梅": 3213,
      "梏": 3214,
      "梓": 3215,
      "條": 3216,
      "梦": 3217,
      "梨": 3218,
      "梭": 3219,
      "梯": 3220,
      "械": 3221,
      "梵": 3222,
      "梶": 3223,
      "棋": 3224,
      "棍": 3225,
      "棗": 3226,
      "棘": 3227,
      "棚": 3228,
      "棟": 3229,
      "森": 3230,
      "棲": 3231,
      "棵": 3232,
      "棺": 3233,
      "椅": 3234,
      "植": 3235,
      "椎": 3236,
      "椒": 3237,
      "椛": 3238,
      "検": 3239,
      "椰": 3240,
      "椿": 3241,
      "楊": 3242,
      "楚": 3243,
      "楠": 3244,
      "業": 3245,
      "楯": 3246,
      "極": 3247,
      "楼": 3248,
      "楽": 3249,
      "概": 3250,
      "榆": 3251,
      "榊": 3252,
      "榔": 3253,
      "榛": 3254,
      "榮": 3255,
      "榴": 3256,
      "槐": 3257,
      "様": 3258,
      "槤": 3259,
      "槻": 3260,
      "樂": 3261,
      "樉": 3262,
      "樊": 3263,
      "樓": 3264,
      "樗": 3265,
      "標": 3266,
      "樛": 3267,
      "模": 3268,
      "権": 3269,
      "横": 3270,
      "樱": 3271,
      "樸": 3272,
      "樹": 3273,
      "橋": 3274,
      "橘": 3275,
      "橚": 3276,
      "機": 3277,
      "橫": 3278,
      "橿": 3279,
      "檀": 3280,
      "檜": 3281,
      "檳": 3282,
      "檻": 3283,
      "櫓": 3284,
      "櫻": 3285,
      "權": 3286,
      "欒": 3287,
      "欠": 3288,
      "次": 3289,
      "欣": 3290,
      "欲": 3291,
      "欽": 3292,
      "歌": 3293,
      "歓": 3294,
      "歡": 3295,
      "止": 3296,
      "正": 3297,
      "步": 3298,
      "武": 3299,
      "歩": 3300,
      "歪": 3301,
      "歲": 3302,
      "歳": 3303,
      "歴": 3304,
      "歷": 3305,
      "歸": 3306,
      "死": 3307,
      "殊": 3308,
      "残": 3309,
      "段": 3310,
      "殺": 3311,
      "殻": 3312,
      "殿": 3313,
      "毅": 3314,
      "母": 3315,
      "毎": 3316,
      "每": 3317,
      "比": 3318,
      "毕": 3319,
      "毘": 3320,
      "毛": 3321,
      "毫": 3322,
      "毬": 3323,
      "氏": 3324,
      "民": 3325,
      "气": 3326,
      "気": 3327,
      "氣": 3328,
      "水": 3329,
      "氷": 3330,
      "永": 3331,
      "氾": 3332,
      "汇": 3333,
      "汉": 3334,
      "汐": 3335,
      "汗": 3336,
      "汝": 3337,
      "江": 3338,
      "池": 3339,
      "汤": 3340,
      "汪": 3341,
      "汰": 3342,
      "汶": 3343,
      "決": 3344,
      "汽": 3345,
      "沂": 3346,
      "沃": 3347,
      "沈": 3348,
      "沉": 3349,
      "沌": 3350,
      "沐": 3351,
      "沒": 3352,
      "沖": 3353,
      "沙": 3354,
      "沛": 3355,
      "没": 3356,
      "沢": 3357,
      "沫": 3358,
      "河": 3359,
      "沸": 3360,
      "油": 3361,
      "治": 3362,
      "沼": 3363,
      "沽": 3364,
      "泉": 3365,
      "泊": 3366,
      "法": 3367,
      "泗": 3368,
      "泡": 3369,
      "波": 3370,
      "泣": 3371,
      "泥": 3372,
      "注": 3373,
      "泰": 3374,
      "泾": 3375,
      "洁": 3376,
      "洋": 3377,
      "洛": 3378,
      "洞": 3379,
      "津": 3380,
      "洪": 3381,
      "洲": 3382,
      "活": 3383,
      "派": 3384,
      "流": 3385,
      "浅": 3386,
      "浙": 3387,
      "浚": 3388,
      "浜": 3389,
      "浦": 3390,
      "浩": 3391,
      "浪": 3392,
      "浮": 3393,
      "海": 3394,
      "消": 3395,
      "涙": 3396,
      "润": 3397,
      "涵": 3398,
      "涼": 3399,
      "淇": 3400,
      "淑": 3401,
      "淘": 3402,
      "淡": 3403,
      "淨": 3404,
      "深": 3405,
      "淳": 3406,
      "淵": 3407,
      "淹": 3408,
      "添": 3409,
      "清": 3410,
      "渊": 3411,
      "渚": 3412,
      "減": 3413,
      "渠": 3414,
      "渡": 3415,
      "渣": 3416,
      "渥": 3417,
      "渦": 3418,
      "温": 3419,
      "測": 3420,
      "港": 3421,
      "游": 3422,
      "渾": 3423,
      "湊": 3424,
      "湖": 3425,
      "湯": 3426,
      "湾": 3427,
      "満": 3428,
      "源": 3429,
      "準": 3430,
      "溜": 3431,
      "溢": 3432,
      "溪": 3433,
      "溫": 3434,
      "溶": 3435,
      "滅": 3436,
      "滋": 3437,
      "滑": 3438,
      "滨": 3439,
      "滿": 3440,
      "漁": 3441,
      "漂": 3442,
      "漆": 3443,
      "漏": 3444,
      "漠": 3445,
      "漢": 3446,
      "漫": 3447,
      "漳": 3448,
      "漸": 3449,
      "潘": 3450,
      "潜": 3451,
      "潤": 3452,
      "澄": 3453,
      "澤": 3454,
      "澪": 3455,
      "激": 3456,
      "濃": 3457,
      "濞": 3458,
      "濟": 3459,
      "瀛": 3460,
      "瀬": 3461,
      "灣": 3462,
      "火": 3463,
      "灯": 3464,
      "灰": 3465,
      "灵": 3466,
      "灶": 3467,
      "灼": 3468,
      "災": 3469,
      "灾": 3470,
      "炎": 3471,
      "炬": 3472,
      "炮": 3473,
      "炯": 3474,
      "炷": 3475,
      "炸": 3476,
      "点": 3477,
      "為": 3478,
      "炼": 3479,
      "烈": 3480,
      "烏": 3481,
      "烙": 3482,
      "烟": 3483,
      "烦": 3484,
      "烧": 3485,
      "焉": 3486,
      "焔": 3487,
      "無": 3488,
      "焦": 3489,
      "然": 3490,
      "焼": 3491,
      "煌": 3492,
      "煙": 3493,
      "煜": 3494,
      "照": 3495,
      "煩": 3496,
      "煮": 3497,
      "熊": 3498,
      "熔": 3499,
      "熙": 3500,
      "熟": 3501,
      "熱": 3502,
      "燃": 3503,
      "燈": 3504,
      "燕": 3505,
      "營": 3506,
      "爆": 3507,
      "爪": 3508,
      "爭": 3509,
      "爱": 3510,
      "爲": 3511,
      "爵": 3512,
      "父": 3513,
      "爺": 3514,
      "爻": 3515,
      "爽": 3516,
      "爾": 3517,
      "片": 3518,
      "版": 3519,
      "牌": 3520,
      "牙": 3521,
      "牛": 3522,
      "牡": 3523,
      "牢": 3524,
      "牧": 3525,
      "物": 3526,
      "牵": 3527,
      "特": 3528,
      "犖": 3529,
      "犬": 3530,
      "犯": 3531,
      "狀": 3532,
      "狂": 3533,
      "狐": 3534,
      "狗": 3535,
      "狛": 3536,
      "狡": 3537,
      "狩": 3538,
      "独": 3539,
      "狭": 3540,
      "狱": 3541,
      "狸": 3542,
      "狼": 3543,
      "猛": 3544,
      "猩": 3545,
      "猪": 3546,
      "猫": 3547,
      "献": 3548,
      "猿": 3549,
      "獄": 3550,
      "獅": 3551,
      "獣": 3552,
      "獵": 3553,
      "獻": 3554,
      "玄": 3555,
      "玉": 3556,
      "王": 3557,
      "玖": 3558,
      "玩": 3559,
      "玲": 3560,
      "珂": 3561,
      "珍": 3562,
      "珙": 3563,
      "珠": 3564,
      "現": 3565,
      "球": 3566,
      "理": 3567,
      "琦": 3568,
      "琪": 3569,
      "琬": 3570,
      "琮": 3571,
      "琴": 3572,
      "瑋": 3573,
      "瑙": 3574,
      "瑜": 3575,
      "瑞": 3576,
      "瑠": 3577,
      "瑣": 3578,
      "瑪": 3579,
      "瑾": 3580,
      "璉": 3581,
      "環": 3582,
      "璽": 3583,
      "瓊": 3584,
      "瓜": 3585,
      "瓢": 3586,
      "瓦": 3587,
      "瓩": 3588,
      "瓷": 3589,
      "甘": 3590,
      "甜": 3591,
      "生": 3592,
      "產": 3593,
      "産": 3594,
      "用": 3595,
      "甫": 3596,
      "田": 3597,
      "由": 3598,
      "甲": 3599,
      "申": 3600,
      "男": 3601,
      "町": 3602,
      "画": 3603,
      "甽": 3604,
      "界": 3605,
      "畑": 3606,
      "留": 3607,
      "畜": 3608,
      "畢": 3609,
      "略": 3610,
      "番": 3611,
      "畫": 3612,
      "異": 3613,
      "疆": 3614,
      "疾": 3615,
      "病": 3616,
      "症": 3617,
      "痘": 3618,
      "痛": 3619,
      "痴": 3620,
      "瘡": 3621,
      "瘤": 3622,
      "発": 3623,
      "登": 3624,
      "發": 3625,
      "白": 3626,
      "百": 3627,
      "的": 3628,
      "皇": 3629,
      "皙": 3630,
      "皮": 3631,
      "皿": 3632,
      "盆": 3633,
      "盈": 3634,
      "益": 3635,
      "盏": 3636,
      "盐": 3637,
      "监": 3638,
      "盒": 3639,
      "盗": 3640,
      "盘": 3641,
      "盛": 3642,
      "盟": 3643,
      "監": 3644,
      "盤": 3645,
      "盧": 3646,
      "目": 3647,
      "直": 3648,
      "相": 3649,
      "盼": 3650,
      "省": 3651,
      "看": 3652,
      "県": 3653,
      "眞": 3654,
      "真": 3655,
      "眼": 3656,
      "着": 3657,
      "督": 3658,
      "瞬": 3659,
      "瞳": 3660,
      "矢": 3661,
      "知": 3662,
      "矩": 3663,
      "短": 3664,
      "矮": 3665,
      "矯": 3666,
      "石": 3667,
      "砂": 3668,
      "砍": 3669,
      "研": 3670,
      "砖": 3671,
      "砲": 3672,
      "破": 3673,
      "硕": 3674,
      "硝": 3675,
      "硨": 3676,
      "碍": 3677,
      "碗": 3678,
      "碩": 3679,
      "確": 3680,
      "碼": 3681,
      "磁": 3682,
      "磅": 3683,
      "磐": 3684,
      "磨": 3685,
      "磯": 3686,
      "磲": 3687,
      "礁": 3688,
      "礎": 3689,
      "礮": 3690,
      "示": 3691,
      "礼": 3692,
      "社": 3693,
      "祀": 3694,
      "祈": 3695,
      "祐": 3696,
      "祖": 3697,
      "祚": 3698,
      "神": 3699,
      "祠": 3700,
      "祥": 3701,
      "票": 3702,
      "祭": 3703,
      "祺": 3704,
      "祿": 3705,
      "禁": 3706,
      "禄": 3707,
      "禎": 3708,
      "福": 3709,
      "禦": 3710,
      "禮": 3711,
      "禰": 3712,
      "禺": 3713,
      "禾": 3714,
      "秀": 3715,
      "私": 3716,
      "秋": 3717,
      "科": 3718,
      "秒": 3719,
      "秘": 3720,
      "租": 3721,
      "秤": 3722,
      "秦": 3723,
      "移": 3724,
      "程": 3725,
      "稔": 3726,
      "稚": 3727,
      "種": 3728,
      "稲": 3729,
      "稷": 3730,
      "稽": 3731,
      "穂": 3732,
      "穌": 3733,
      "積": 3734,
      "穎": 3735,
      "穗": 3736,
      "穢": 3737,
      "究": 3738,
      "空": 3739,
      "突": 3740,
      "窓": 3741,
      "窗": 3742,
      "窟": 3743,
      "竇": 3744,
      "立": 3745,
      "站": 3746,
      "竜": 3747,
      "章": 3748,
      "童": 3749,
      "端": 3750,
      "竹": 3751,
      "竺": 3752,
      "笑": 3753,
      "笔": 3754,
      "笛": 3755,
      "笠": 3756,
      "符": 3757,
      "笨": 3758,
      "第": 3759,
      "笹": 3760,
      "筆": 3761,
      "等": 3762,
      "筋": 3763,
      "筍": 3764,
      "筐": 3765,
      "筑": 3766,
      "答": 3767,
      "策": 3768,
      "筹": 3769,
      "箇": 3770,
      "箋": 3771,
      "算": 3772,
      "管": 3773,
      "箪": 3774,
      "箭": 3775,
      "箱": 3776,
      "節": 3777,
      "範": 3778,
      "篇": 3779,
      "篋": 3780,
      "篚": 3781,
      "篤": 3782,
      "簡": 3783,
      "簿": 3784,
      "籃": 3785,
      "籌": 3786,
      "籍": 3787,
      "籠": 3788,
      "米": 3789,
      "籵": 3790,
      "粁": 3791,
      "粉": 3792,
      "粍": 3793,
      "粟": 3794,
      "粥": 3795,
      "粨": 3796,
      "精": 3797,
      "糊": 3798,
      "糎": 3799,
      "糖": 3800,
      "糸": 3801,
      "系": 3802,
      "紀": 3803,
      "約": 3804,
      "紅": 3805,
      "紋": 3806,
      "納": 3807,
      "純": 3808,
      "紘": 3809,
      "紙": 3810,
      "級": 3811,
      "素": 3812,
      "紡": 3813,
      "紫": 3814,
      "細": 3815,
      "紹": 3816,
      "紺": 3817,
      "終": 3818,
      "組": 3819,
      "絆": 3820,
      "経": 3821,
      "結": 3822,
      "絡": 3823,
      "給": 3824,
      "統": 3825,
      "絵": 3826,
      "絶": 3827,
      "綁": 3828,
      "經": 3829,
      "継": 3830,
      "続": 3831,
      "綜": 3832,
      "綠": 3833,
      "維": 3834,
      "綯": 3835,
      "綱": 3836,
      "網": 3837,
      "綸": 3838,
      "綺": 3839,
      "綾": 3840,
      "緋": 3841,
      "総": 3842,
      "緑": 3843,
      "緒": 3844,
      "線": 3845,
      "締": 3846,
      "編": 3847,
      "緩": 3848,
      "緬": 3849,
      "緯": 3850,
      "縄": 3851,
      "縊": 3852,
      "縣": 3853,
      "總": 3854,
      "繋": 3855,
      "織": 3856,
      "繹": 3857,
      "繼": 3858,
      "續": 3859,
      "红": 3860,
      "级": 3861,
      "纪": 3862,
      "纯": 3863,
      "纲": 3864,
      "纵": 3865,
      "线": 3866,
      "组": 3867,
      "绅": 3868,
      "细": 3869,
      "终": 3870,
      "绍": 3871,
      "经": 3872,
      "给": 3873,
      "统": 3874,
      "继": 3875,
      "绮": 3876,
      "维": 3877,
      "综": 3878,
      "缽": 3879,
      "网": 3880,
      "罗": 3881,
      "罠": 3882,
      "罪": 3883,
      "置": 3884,
      "罰": 3885,
      "罸": 3886,
      "羅": 3887,
      "羊": 3888,
      "美": 3889,
      "群": 3890,
      "義": 3891,
      "羽": 3892,
      "翁": 3893,
      "習": 3894,
      "翔": 3895,
      "翘": 3896,
      "翠": 3897,
      "翡": 3898,
      "翱": 3899,
      "翹": 3900,
      "翻": 3901,
      "翼": 3902,
      "老": 3903,
      "考": 3904,
      "者": 3905,
      "耆": 3906,
      "而": 3907,
      "耕": 3908,
      "耳": 3909,
      "耶": 3910,
      "耿": 3911,
      "聃": 3912,
      "联": 3913,
      "聖": 3914,
      "聘": 3915,
      "聚": 3916,
      "聞": 3917,
      "聡": 3918,
      "聯": 3919,
      "聰": 3920,
      "聲": 3921,
      "職": 3922,
      "肃": 3923,
      "肉": 3924,
      "肖": 3925,
      "肚": 3926,
      "股": 3927,
      "肥": 3928,
      "肩": 3929,
      "育": 3930,
      "背": 3931,
      "胞": 3932,
      "胠": 3933,
      "胡": 3934,
      "胤": 3935,
      "胴": 3936,
      "胸": 3937,
      "能": 3938,
      "脂": 3939,
      "脇": 3940,
      "脈": 3941,
      "脉": 3942,
      "脚": 3943,
      "脩": 3944,
      "脱": 3945,
      "脳": 3946,
      "腎": 3947,
      "腐": 3948,
      "腰": 3949,
      "腹": 3950,
      "腿": 3951,
      "膀": 3952,
      "膺": 3953,
      "臂": 3954,
      "臘": 3955,
      "臚": 3956,
      "臣": 3957,
      "臨": 3958,
      "自": 3959,
      "臭": 3960,
      "至": 3961,
      "致": 3962,
      "臺": 3963,
      "與": 3964,
      "興": 3965,
      "舍": 3966,
      "舎": 3967,
      "舞": 3968,
      "舟": 3969,
      "航": 3970,
      "船": 3971,
      "艦": 3972,
      "良": 3973,
      "色": 3974,
      "艳": 3975,
      "艶": 3976,
      "艺": 3977,
      "节": 3978,
      "芒": 3979,
      "芙": 3980,
      "芝": 3981,
      "芥": 3982,
      "芦": 3983,
      "芬": 3984,
      "芭": 3985,
      "芮": 3986,
      "芯": 3987,
      "花": 3988,
      "芳": 3989,
      "芸": 3990,
      "芹": 3991,
      "芽": 3992,
      "苏": 3993,
      "苑": 3994,
      "苗": 3995,
      "苣": 3996,
      "若": 3997,
      "英": 3998,
      "苺": 3999,
      "茂": 4000,
      "范": 4001,
      "茅": 4002,
      "茜": 4003,
      "茶": 4004,
      "茸": 4005,
      "草": 4006,
      "荊": 4007,
      "荒": 4008,
      "荔": 4009,
      "荘": 4010,
      "荥": 4011,
      "荪": 4012,
      "荫": 4013,
      "药": 4014,
      "荷": 4015,
      "荻": 4016,
      "荼": 4017,
      "莉": 4018,
      "莊": 4019,
      "莎": 4020,
      "莘": 4021,
      "莞": 4022,
      "莫": 4023,
      "莱": 4024,
      "莲": 4025,
      "莴": 4026,
      "菇": 4027,
      "菉": 4028,
      "菊": 4029,
      "菜": 4030,
      "華": 4031,
      "菱": 4032,
      "菲": 4033,
      "萌": 4034,
      "萍": 4035,
      "萝": 4036,
      "营": 4037,
      "萧": 4038,
      "萨": 4039,
      "萬": 4040,
      "落": 4041,
      "葆": 4042,
      "葉": 4043,
      "著": 4044,
      "葛": 4045,
      "董": 4046,
      "葦": 4047,
      "葫": 4048,
      "葵": 4049,
      "蒙": 4050,
      "蒭": 4051,
      "蒲": 4052,
      "蒼": 4053,
      "蒿": 4054,
      "蓀": 4055,
      "蓑": 4056,
      "蓝": 4057,
      "蓮": 4058,
      "蔡": 4059,
      "蔭": 4060,
      "蔵": 4061,
      "蕃": 4062,
      "蕉": 4063,
      "蕨": 4064,
      "蕩": 4065,
      "蕭": 4066,
      "薇": 4067,
      "薊": 4068,
      "薔": 4069,
      "薙": 4070,
      "薛": 4071,
      "薩": 4072,
      "薫": 4073,
      "薯": 4074,
      "藍": 4075,
      "藏": 4076,
      "藕": 4077,
      "藝": 4078,
      "藤": 4079,
      "藥": 4080,
      "藩": 4081,
      "藻": 4082,
      "蘄": 4083,
      "蘅": 4084,
      "蘇": 4085,
      "蘑": 4086,
      "蘭": 4087,
      "蘿": 4088,
      "虎": 4089,
      "虐": 4090,
      "虔": 4091,
      "處": 4092,
      "虚": 4093,
      "虛": 4094,
      "號": 4095,
      "虫": 4096,
      "虹": 4097,
      "蛇": 4098,
      "蛍": 4099,
      "蛙": 4100,
      "蛭": 4101,
      "蜃": 4102,
      "蜡": 4103,
      "蝉": 4104,
      "蝕": 4105,
      "蝴": 4106,
      "蝶": 4107,
      "融": 4108,
      "螺": 4109,
      "蟲": 4110,
      "蠕": 4111,
      "蠻": 4112,
      "血": 4113,
      "衆": 4114,
      "行": 4115,
      "術": 4116,
      "街": 4117,
      "衙": 4118,
      "衛": 4119,
      "衝": 4120,
      "衡": 4121,
      "衢": 4122,
      "衣": 4123,
      "补": 4124,
      "表": 4125,
      "袁": 4126,
      "袈": 4127,
      "袖": 4128,
      "被": 4129,
      "裁": 4130,
      "裂": 4131,
      "装": 4132,
      "裏": 4133,
      "裔": 4134,
      "裕": 4135,
      "補": 4136,
      "裝": 4137,
      "裟": 4138,
      "裳": 4139,
      "裸": 4140,
      "製": 4141,
      "褒": 4142,
      "襄": 4143,
      "襟": 4144,
      "襲": 4145,
      "西": 4146,
      "要": 4147,
      "覇": 4148,
      "見": 4149,
      "規": 4150,
      "視": 4151,
      "覚": 4152,
      "親": 4153,
      "観": 4154,
      "覺": 4155,
      "觀": 4156,
      "观": 4157,
      "角": 4158,
      "解": 4159,
      "触": 4160,
      "觳": 4161,
      "言": 4162,
      "計": 4163,
      "記": 4164,
      "設": 4165,
      "許": 4166,
      "訳": 4167,
      "証": 4168,
      "詔": 4169,
      "詞": 4170,
      "詠": 4171,
      "試": 4172,
      "詩": 4173,
      "話": 4174,
      "誌": 4175,
      "誐": 4176,
      "誒": 4177,
      "誓": 4178,
      "誕": 4179,
      "誘": 4180,
      "語": 4181,
      "誠": 4182,
      "誡": 4183,
      "誦": 4184,
      "說": 4185,
      "説": 4186,
      "読": 4187,
      "誰": 4188,
      "課": 4189,
      "調": 4190,
      "談": 4191,
      "論": 4192,
      "諭": 4193,
      "諷": 4194,
      "諸": 4195,
      "謀": 4196,
      "謁": 4197,
      "謎": 4198,
      "謙": 4199,
      "講": 4200,
      "謝": 4201,
      "謡": 4202,
      "譌": 4203,
      "識": 4204,
      "譚": 4205,
      "譜": 4206,
      "警": 4207,
      "議": 4208,
      "護": 4209,
      "讀": 4210,
      "變": 4211,
      "讐": 4212,
      "讓": 4213,
      "计": 4214,
      "让": 4215,
      "议": 4216,
      "许": 4217,
      "论": 4218,
      "讼": 4219,
      "诉": 4220,
      "词": 4221,
      "诗": 4222,
      "诚": 4223,
      "话": 4224,
      "语": 4225,
      "诶": 4226,
      "请": 4227,
      "诺": 4228,
      "读": 4229,
      "课": 4230,
      "谁": 4231,
      "谦": 4232,
      "谭": 4233,
      "谷": 4234,
      "豆": 4235,
      "豊": 4236,
      "豌": 4237,
      "豐": 4238,
      "豚": 4239,
      "象": 4240,
      "豪": 4241,
      "豫": 4242,
      "豬": 4243,
      "豹": 4244,
      "貓": 4245,
      "貝": 4246,
      "貞": 4247,
      "負": 4248,
      "財": 4249,
      "貫": 4250,
      "貴": 4251,
      "費": 4252,
      "賀": 4253,
      "資": 4254,
      "賈": 4255,
      "賊": 4256,
      "賓": 4257,
      "賞": 4258,
      "賢": 4259,
      "賦": 4260,
      "質": 4261,
      "購": 4262,
      "贈": 4263,
      "贝": 4264,
      "贞": 4265,
      "财": 4266,
      "贤": 4267,
      "质": 4268,
      "贵": 4269,
      "贺": 4270,
      "贼": 4271,
      "资": 4272,
      "赤": 4273,
      "赭": 4274,
      "走": 4275,
      "赵": 4276,
      "起": 4277,
      "超": 4278,
      "越": 4279,
      "趙": 4280,
      "足": 4281,
      "跆": 4282,
      "跑": 4283,
      "跖": 4284,
      "跟": 4285,
      "跡": 4286,
      "路": 4287,
      "跳": 4288,
      "踊": 4289,
      "踏": 4290,
      "踢": 4291,
      "蹴": 4292,
      "身": 4293,
      "車": 4294,
      "軌": 4295,
      "軍": 4296,
      "軒": 4297,
      "転": 4298,
      "軽": 4299,
      "載": 4300,
      "輔": 4301,
      "輛": 4302,
      "輝": 4303,
      "輪": 4304,
      "輿": 4305,
      "轉": 4306,
      "车": 4307,
      "轩": 4308,
      "转": 4309,
      "辆": 4310,
      "辉": 4311,
      "辛": 4312,
      "辣": 4313,
      "辨": 4314,
      "辭": 4315,
      "辯": 4316,
      "辰": 4317,
      "農": 4318,
      "边": 4319,
      "辺": 4320,
      "辽": 4321,
      "达": 4322,
      "辿": 4323,
      "迄": 4324,
      "迅": 4325,
      "过": 4326,
      "迈": 4327,
      "运": 4328,
      "近": 4329,
      "返": 4330,
      "这": 4331,
      "进": 4332,
      "远": 4333,
      "迦": 4334,
      "迪": 4335,
      "述": 4336,
      "迷": 4337,
      "追": 4338,
      "送": 4339,
      "适": 4340,
      "逆": 4341,
      "选": 4342,
      "這": 4343,
      "通": 4344,
      "造": 4345,
      "逢": 4346,
      "連": 4347,
      "逯": 4348,
      "週": 4349,
      "進": 4350,
      "遁": 4351,
      "遇": 4352,
      "遊": 4353,
      "運": 4354,
      "遍": 4355,
      "過": 4356,
      "道": 4357,
      "達": 4358,
      "遗": 4359,
      "遙": 4360,
      "遜": 4361,
      "遠": 4362,
      "遥": 4363,
      "遮": 4364,
      "選": 4365,
      "遺": 4366,
      "遼": 4367,
      "避": 4368,
      "邁": 4369,
      "還": 4370,
      "邊": 4371,
      "邑": 4372,
      "邓": 4373,
      "那": 4374,
      "邦": 4375,
      "邪": 4376,
      "邱": 4377,
      "邵": 4378,
      "郁": 4379,
      "郊": 4380,
      "郎": 4381,
      "郑": 4382,
      "郛": 4383,
      "郝": 4384,
      "郡": 4385,
      "部": 4386,
      "郭": 4387,
      "郷": 4388,
      "都": 4389,
      "鄧": 4390,
      "鄭": 4391,
      "酈": 4392,
      "酉": 4393,
      "酒": 4394,
      "酔": 4395,
      "酥": 4396,
      "酱": 4397,
      "酷": 4398,
      "酸": 4399,
      "醋": 4400,
      "醒": 4401,
      "醫": 4402,
      "采": 4403,
      "釈": 4404,
      "釋": 4405,
      "里": 4406,
      "重": 4407,
      "野": 4408,
      "量": 4409,
      "金": 4410,
      "釗": 4411,
      "釣": 4412,
      "鈍": 4413,
      "鈴": 4414,
      "鉄": 4415,
      "鉢": 4416,
      "鉦": 4417,
      "鉱": 4418,
      "鉴": 4419,
      "銀": 4420,
      "銃": 4421,
      "銅": 4422,
      "銓": 4423,
      "銖": 4424,
      "銘": 4425,
      "銳": 4426,
      "鋒": 4427,
      "鋪": 4428,
      "鋼": 4429,
      "錄": 4430,
      "錡": 4431,
      "錦": 4432,
      "錬": 4433,
      "録": 4434,
      "鍋": 4435,
      "鍵": 4436,
      "鎖": 4437,
      "鎧": 4438,
      "鎮": 4439,
      "鏡": 4440,
      "鐘": 4441,
      "鐵": 4442,
      "鐸": 4443,
      "鑒": 4444,
      "钊": 4445,
      "钢": 4446,
      "钦": 4447,
      "钱": 4448,
      "铁": 4449,
      "铎": 4450,
      "铜": 4451,
      "铭": 4452,
      "铺": 4453,
      "锡": 4454,
      "键": 4455,
      "镇": 4456,
      "镗": 4457,
      "镜": 4458,
      "長": 4459,
      "长": 4460,
      "門": 4461,
      "閃": 4462,
      "開": 4463,
      "閏": 4464,
      "閒": 4465,
      "間": 4466,
      "関": 4467,
      "閣": 4468,
      "閨": 4469,
      "闇": 4470,
      "闍": 4471,
      "闕": 4472,
      "闘": 4473,
      "關": 4474,
      "门": 4475,
      "问": 4476,
      "闯": 4477,
      "阁": 4478,
      "阪": 4479,
      "防": 4480,
      "阳": 4481,
      "阿": 4482,
      "陀": 4483,
      "附": 4484,
      "际": 4485,
      "陈": 4486,
      "降": 4487,
      "限": 4488,
      "陛": 4489,
      "院": 4490,
      "陣": 4491,
      "除": 4492,
      "陪": 4493,
      "陳": 4494,
      "陵": 4495,
      "陶": 4496,
      "陸": 4497,
      "険": 4498,
      "陽": 4499,
      "隆": 4500,
      "隊": 4501,
      "階": 4502,
      "隔": 4503,
      "隗": 4504,
      "隠": 4505,
      "隣": 4506,
      "隱": 4507,
      "隴": 4508,
      "隸": 4509,
      "隻": 4510,
      "隼": 4511,
      "雀": 4512,
      "雁": 4513,
      "雄": 4514,
      "雅": 4515,
      "集": 4516,
      "雇": 4517,
      "雉": 4518,
      "雎": 4519,
      "雕": 4520,
      "雙": 4521,
      "雛": 4522,
      "雜": 4523,
      "雞": 4524,
      "離": 4525,
      "難": 4526,
      "雨": 4527,
      "雪": 4528,
      "雲": 4529,
      "雳": 4530,
      "零": 4531,
      "雷": 4532,
      "電": 4533,
      "雾": 4534,
      "需": 4535,
      "霆": 4536,
      "震": 4537,
      "霊": 4538,
      "霍": 4539,
      "霖": 4540,
      "霜": 4541,
      "霞": 4542,
      "霧": 4543,
      "霰": 4544,
      "露": 4545,
      "霸": 4546,
      "霹": 4547,
      "靂": 4548,
      "靈": 4549,
      "青": 4550,
      "靖": 4551,
      "静": 4552,
      "非": 4553,
      "靠": 4554,
      "面": 4555,
      "革": 4556,
      "靴": 4557,
      "靼": 4558,
      "鞋": 4559,
      "鞍": 4560,
      "鞠": 4561,
      "韃": 4562,
      "韋": 4563,
      "韓": 4564,
      "韦": 4565,
      "韩": 4566,
      "韭": 4567,
      "音": 4568,
      "韶": 4569,
      "響": 4570,
      "頃": 4571,
      "項": 4572,
      "順": 4573,
      "須": 4574,
      "頌": 4575,
      "頒": 4576,
      "領": 4577,
      "頭": 4578,
      "顆": 4579,
      "題": 4580,
      "額": 4581,
      "顏": 4582,
      "顔": 4583,
      "願": 4584,
      "類": 4585,
      "顯": 4586,
      "项": 4587,
      "顾": 4588,
      "颂": 4589,
      "颊": 4590,
      "颖": 4591,
      "颗": 4592,
      "颜": 4593,
      "風": 4594,
      "颪": 4595,
      "颱": 4596,
      "飄": 4597,
      "风": 4598,
      "飛": 4599,
      "飞": 4600,
      "食": 4601,
      "飯": 4602,
      "飾": 4603,
      "餅": 4604,
      "養": 4605,
      "餓": 4606,
      "館": 4607,
      "饼": 4608,
      "饾": 4609,
      "馆": 4610,
      "馒": 4611,
      "首": 4612,
      "香": 4613,
      "馬": 4614,
      "馮": 4615,
      "駆": 4616,
      "駐": 4617,
      "駒": 4618,
      "駙": 4619,
      "駢": 4620,
      "駿": 4621,
      "騎": 4622,
      "騒": 4623,
      "験": 4624,
      "騭": 4625,
      "騰": 4626,
      "騷": 4627,
      "驁": 4628,
      "驗": 4629,
      "驚": 4630,
      "驤": 4631,
      "马": 4632,
      "驰": 4633,
      "骨": 4634,
      "骸": 4635,
      "髀": 4636,
      "體": 4637,
      "高": 4638,
      "髪": 4639,
      "鬘": 4640,
      "鬥": 4641,
      "鬪": 4642,
      "鬼": 4643,
      "魂": 4644,
      "魄": 4645,
      "魔": 4646,
      "魚": 4647,
      "魯": 4648,
      "鮑": 4649,
      "鮫": 4650,
      "鮮": 4651,
      "鯖": 4652,
      "鯵": 4653,
      "鰐": 4654,
      "鱀": 4655,
      "鱼": 4656,
      "鲁": 4657,
      "鲤": 4658,
      "鳥": 4659,
      "鳩": 4660,
      "鳳": 4661,
      "鳴": 4662,
      "鳶": 4663,
      "鴉": 4664,
      "鴣": 4665,
      "鴨": 4666,
      "鴻": 4667,
      "鵡": 4668,
      "鵩": 4669,
      "鵬": 4670,
      "鶍": 4671,
      "鶴": 4672,
      "鷓": 4673,
      "鷹": 4674,
      "鷺": 4675,
      "鸚": 4676,
      "鸟": 4677,
      "鸡": 4678,
      "鸭": 4679,
      "鸿": 4680,
      "鹅": 4681,
      "鹹": 4682,
      "鹼": 4683,
      "鹽": 4684,
      "鹿": 4685,
      "麗": 4686,
      "麥": 4687,
      "麵": 4688,
      "麻": 4689,
      "麼": 4690,
      "麾": 4691,
      "黃": 4692,
      "黄": 4693,
      "黎": 4694,
      "黑": 4695,
      "黒": 4696,
      "黙": 4697,
      "黛": 4698,
      "黨": 4699,
      "鼉": 4700,
      "鼎": 4701,
      "鼓": 4702,
      "鼠": 4703,
      "鼻": 4704,
      "齉": 4705,
      "齊": 4706,
      "齋": 4707,
      "齐": 4708,
      "龍": 4709,
      "龙": 4710,
      "ꜛ": 4711,
      "ꜜ": 4712,
      "ꜣ": 4713,
      "ꜩ": 4714,
      "ꜫ": 4715,
      "ꜭ": 4716,
      "ꞅ": 4717,
      "ꞎ": 4718,
      "Ʞ": 4719,
      "ꞵ": 4720,
      "ꦂ": 4721,
      "ꦠ": 4722,
      "ꦯ": 4723,
      "ꦲ": 4724,
      "ꦸ": 4725,
      "ꭓ": 4726,
      "가": 4727,
      "간": 4728,
      "강": 4729,
      "개": 4730,
      "거": 4731,
      "건": 4732,
      "경": 4733,
      "계": 4734,
      "고": 4735,
      "공": 4736,
      "관": 4737,
      "광": 4738,
      "구": 4739,
      "국": 4740,
      "권": 4741,
      "귀": 4742,
      "그": 4743,
      "극": 4744,
      "근": 4745,
      "글": 4746,
      "금": 4747,
      "급": 4748,
      "기": 4749,
      "김": 4750,
      "꺼": 4751,
      "껐": 4752,
      "나": 4753,
      "날": 4754,
      "남": 4755,
      "났": 4756,
      "내": 4757,
      "너": 4758,
      "네": 4759,
      "념": 4760,
      "노": 4761,
      "놔": 4762,
      "눈": 4763,
      "늬": 4764,
      "다": 4765,
      "단": 4766,
      "대": 4767,
      "더": 4768,
      "도": 4769,
      "독": 4770,
      "돌": 4771,
      "동": 4772,
      "디": 4773,
      "딱": 4774,
      "라": 4775,
      "람": 4776,
      "래": 4777,
      "런": 4778,
      "렌": 4779,
      "려": 4780,
      "렬": 4781,
      "로": 4782,
      "록": 4783,
      "론": 4784,
      "루": 4785,
      "류": 4786,
      "르": 4787,
      "를": 4788,
      "리": 4789,
      "립": 4790,
      "마": 4791,
      "막": 4792,
      "만": 4793,
      "말": 4794,
      "명": 4795,
      "목": 4796,
      "무": 4797,
      "문": 4798,
      "물": 4799,
      "미": 4800,
      "민": 4801,
      "믿": 4802,
      "바": 4803,
      "박": 4804,
      "방": 4805,
      "백": 4806,
      "뱅": 4807,
      "버": 4808,
      "범": 4809,
      "법": 4810,
      "별": 4811,
      "병": 4812,
      "보": 4813,
      "복": 4814,
      "봐": 4815,
      "부": 4816,
      "불": 4817,
      "붉": 4818,
      "빅": 4819,
      "빙": 4820,
      "빤": 4821,
      "뿐": 4822,
      "사": 4823,
      "산": 4824,
      "살": 4825,
      "삼": 4826,
      "삿": 4827,
      "상": 4828,
      "새": 4829,
      "색": 4830,
      "서": 4831,
      "성": 4832,
      "센": 4833,
      "소": 4834,
      "쇼": 4835,
      "수": 4836,
      "순": 4837,
      "술": 4838,
      "숫": 4839,
      "스": 4840,
      "시": 4841,
      "식": 4842,
      "신": 4843,
      "실": 4844,
      "쌤": 4845,
      "아": 4846,
      "안": 4847,
      "알": 4848,
      "암": 4849,
      "앙": 4850,
      "애": 4851,
      "앤": 4852,
      "야": 4853,
      "양": 4854,
      "어": 4855,
      "에": 4856,
      "엔": 4857,
      "연": 4858,
      "영": 4859,
      "예": 4860,
      "오": 4861,
      "온": 4862,
      "왜": 4863,
      "용": 4864,
      "운": 4865,
      "울": 4866,
      "원": 4867,
      "위": 4868,
      "유": 4869,
      "은": 4870,
      "을": 4871,
      "음": 4872,
      "의": 4873,
      "이": 4874,
      "인": 4875,
      "일": 4876,
      "자": 4877,
      "장": 4878,
      "재": 4879,
      "적": 4880,
      "전": 4881,
      "점": 4882,
      "정": 4883,
      "제": 4884,
      "조": 4885,
      "종": 4886,
      "좋": 4887,
      "주": 4888,
      "줄": 4889,
      "중": 4890,
      "지": 4891,
      "진": 4892,
      "집": 4893,
      "짓": 4894,
      "징": 4895,
      "차": 4896,
      "천": 4897,
      "청": 4898,
      "체": 4899,
      "쳐": 4900,
      "초": 4901,
      "춘": 4902,
      "충": 4903,
      "치": 4904,
      "커": 4905,
      "코": 4906,
      "킨": 4907,
      "타": 4908,
      "태": 4909,
      "터": 4910,
      "퇴": 4911,
      "투": 4912,
      "트": 4913,
      "특": 4914,
      "파": 4915,
      "판": 4916,
      "퍼": 4917,
      "평": 4918,
      "표": 4919,
      "풍": 4920,
      "피": 4921,
      "하": 4922,
      "학": 4923,
      "한": 4924,
      "합": 4925,
      "해": 4926,
      "행": 4927,
      "향": 4928,
      "허": 4929,
      "헬": 4930,
      "호": 4931,
      "혹": 4932,
      "홀": 4933,
      "화": 4934,
      "회": 4935,
      "후": 4936,
      "희": 4937,
      "ﬀ": 4938,
      "ﬁ": 4939,
      "ﬂ": 4940,
      "ﮭ": 4941,
      "ﮮ": 4942,
      "ﷲ": 4943,
      "ﷺ": 4944,
      "️": 4945,
      "︠": 4946,
      "︡": 4947,
      "ﺒ": 4948,
      "ﻉ": 4949,
      "ﻋ": 4950,
      "ﻔ": 4951,
      "ﻴ": 4952,
      "﻿": 4953,
      "！": 4954,
      "％": 4955,
      "＆": 4956,
      "（": 4957,
      "）": 4958,
      "，": 4959,
      "－": 4960,
      "／": 4961,
      "１": 4962,
      "２": 4963,
      "３": 4964,
      "４": 4965,
      "６": 4966,
      "：": 4967,
      "＜": 4968,
      "＝": 4969,
      "＞": 4970,
      "？": 4971,
      "Ａ": 4972,
      "Ｃ": 4973,
      "Ｄ": 4974,
      "Ｇ": 4975,
      "Ｉ": 4976,
      "Ｊ": 4977,
      "Ｌ": 4978,
      "Ｍ": 4979,
      "Ｐ": 4980,
      "Ｒ": 4981,
      "Ｘ": 4982,
      "［": 4983,
      "］": 4984,
      "｜": 4985,
      "～": 4986,
      "｢": 4987,
      "｣": 4988,
      "･": 4989,
      "ｰ": 4990,
      "￥": 4991,
      "�": 4992,
      "𐀁": 4993,
      "𐀈": 4994,
      "𐀫": 4995,
      "𐎠": 4996,
      "𐎢": 4997,
      "𐎭": 4998,
      "𐎰": 4999,
      "𐎹": 5000,
      "𐎺": 5001,
      "𐎼": 5002,
      "𐏁": 5003,
      "𐭃": 5004,
      "𐭉": 5005,
      "𐭓": 5006,
      "𐭕": 5007,
      "𒀯": 5008,
      "𒀳": 5009,
      "𝕄": 5010,
      "𝕡": 5011,
      "🖕": 5012,
      "e ": 5013,
      "s ": 5014,
      "th": 5015,
      "d ": 5016,
      "n ": 5017,
      "er": 5018,
      "t ": 5019,
      "the ": 5020,
      "in": 5021,
      "an": 5022,
      ", ": 5023,
      "y ": 5024,
      "ed ": 5025,
      "or": 5026,
      ". ": 5027,
      "ar": 5028,
      "al": 5029,
      "o ": 5030,
      "re": 5031,
      "f ": 5032,
      "ti": 5033,
      "en": 5034,
      "on": 5035,
      "er ": 5036,
      "and ": 5037,
      "g ": 5038,
      "a ": 5039,
      "of ": 5040,
      "on ": 5041,
      "ing ": 5042,
      "in ": 5043,
      "ou": 5044,
      "to ": 5045,
      "as ": 5046,
      "st": 5047,
      "at": 5048,
      "es ": 5049,
      "ic": 5050,
      "ro": 5051,
      "m ": 5052,
      "el": 5053,
      "= ": 5054,
      "il": 5055,
      " , ": 5056,
      "ac": 5057,
      "it": 5058,
      "is ": 5059,
      "he ": 5060,
      "at ": 5061,
      "an ": 5062,
      "al ": 5063,
      "is": 5064,
      "\" ": 5065,
      "h ": 5066,
      "for": 5067,
      "@ ": 5068,
      "th ": 5069,
      "as": 5070,
      "ec": 5071,
      "ur": 5072,
      "es": 5073,
      "om": 5074,
      "was ": 5075,
      "am": 5076,
      "ol": 5077,
      "en ": 5078,
      "ir": 5079,
      "tion ": 5080,
      "ly ": 5081,
      "ow": 5082,
      "si": 5083,
      "ri": 5084,
      "-@ ": 5085,
      "@-@ ": 5086,
      "The ": 5087,
      "= = ": 5088,
      "wh": 5089,
      "of the ": 5090,
      "ad": 5091,
      "wi": 5092,
      "em": 5093,
      "l ": 5094,
      "ch": 5095,
      "k ": 5096,
      "'s ": 5097,
      "un": 5098,
      "pl": 5099,
      " \n": 5100,
      ". \n": 5101,
      "us": 5102,
      "that ": 5103,
      "for ": 5104,
      "di": 5105,
      "ag": 5106,
      "ev": 5107,
      "ha": 5108,
      "ent ": 5109,
      "by ": 5110,
      "ig": 5111,
      "ve ": 5112,
      "with ": 5113,
      "et": 5114,
      "con": 5115,
      "s , ": 5116,
      "os": 5117,
      "( ": 5118,
      "ent": 5119,
      "le": 5120,
      "e , ": 5121,
      "ra": 5122,
      "su": 5123,
      "19": 5124,
      "ere ": 5125,
      "0 ": 5126,
      ". The ": 5127,
      "in the ": 5128,
      "li": 5129,
      "op": 5130,
      "pro": 5131,
      "his ": 5132,
      "or ": 5133,
      "le ": 5134,
      "ov": 5135,
      "oun": 5136,
      "ear": 5137,
      "ab": 5138,
      "be": 5139,
      "com": 5140,
      "ers ": 5141,
      "hi": 5142,
      "ce ": 5143,
      "bu": 5144,
      "ap": 5145,
      "ex": 5146,
      "the": 5147,
      "rom ": 5148,
      "tion": 5149,
      ") ": 5150,
      "ation ": 5151,
      "ul": 5152,
      "it ": 5153,
      "from ": 5154,
      "ted ": 5155,
      "ep": 5156,
      "ay ": 5157,
      "oc": 5158,
      "20": 5159,
      "ter ": 5160,
      "cl": 5161,
      "id": 5162,
      "ew": 5163,
      "sp": 5164,
      "were ": 5165,
      "uc": 5166,
      ". I": 5167,
      "to the ": 5168,
      "im": 5169,
      "st ": 5170,
      "ther ": 5171,
      "p ": 5172,
      "our": 5173,
      "tr": 5174,
      "qu": 5175,
      "tic": 5176,
      "oo": 5177,
      "ts ": 5178,
      "ter": 5179,
      "se": 5180,
      "ea": 5181,
      "per": 5182,
      "ff": 5183,
      ". A": 5184,
      "ated ": 5185,
      "ay": 5186,
      "ate ": 5187,
      "pre": 5188,
      "sh": 5189,
      "ing": 5190,
      "ity ": 5191,
      "ain": 5192,
      "no": 5193,
      "ic ": 5194,
      "had ": 5195,
      " = = ": 5196,
      "ich ": 5197,
      "ar ": 5198,
      "igh": 5199,
      "rec": 5200,
      "ed the ": 5201,
      "ld ": 5202,
      "um": 5203,
      "ing the ": 5204,
      "iv": 5205,
      ", and ": 5206,
      "oug": 5207,
      "ds ": 5208,
      "ir ": 5209,
      "ed to ": 5210,
      "1 ": 5211,
      "ch ": 5212,
      "which ": 5213,
      "e of ": 5214,
      "ame ": 5215,
      "ak": 5216,
      "est ": 5217,
      "str": 5218,
      "ber ": 5219,
      "St": 5220,
      "par": 5221,
      "5 ": 5222,
      "2 ": 5223,
      "be ": 5224,
      "ud": 5225,
      "ally ": 5226,
      "ed by ": 5227,
      "are ": 5228,
      "out ": 5229,
      "ed": 5230,
      ". H": 5231,
      "od": 5232,
      "all": 5233,
      "all ": 5234,
      "so ": 5235,
      "fir": 5236,
      "ation": 5237,
      "av": 5238,
      ". T": 5239,
      "ies ": 5240,
      "et ": 5241,
      "one ": 5242,
      "tim": 5243,
      "ong ": 5244,
      "est": 5245,
      "ary ": 5246,
      "on the ": 5247,
      "its ": 5248,
      "3 ": 5249,
      "man": 5250,
      "por": 5251,
      "wor": 5252,
      "Ch": 5253,
      "po": 5254,
      "ew ": 5255,
      "tur": 5256,
      "but ": 5257,
      "bl": 5258,
      "4 ": 5259,
      "att": 5260,
      "not ": 5261,
      "ould ": 5262,
      "ow ": 5263,
      "ser": 5264,
      "s and ": 5265,
      "200": 5266,
      "el ": 5267,
      "her ": 5268,
      "ran": 5269,
      "fter ": 5270,
      "ot": 5271,
      "6 ": 5272,
      "og": 5273,
      "der ": 5274,
      "tw": 5275,
      "own ": 5276,
      "ard ": 5277,
      "we": 5278,
      "ge ": 5279,
      "sc": 5280,
      ". In ": 5281,
      "first ": 5282,
      "; ": 5283,
      "de": 5284,
      "their ": 5285,
      "8 ": 5286,
      "– ": 5287,
      "i ": 5288,
      "ine ": 5289,
      "ding ": 5290,
      ", the ": 5291,
      "ed in ": 5292,
      "7 ": 5293,
      "also ": 5294,
      "ough ": 5295,
      "cont": 5296,
      "for the ": 5297,
      "ost ": 5298,
      "ast ": 5299,
      "s of ": 5300,
      "vi": 5301,
      " The ": 5302,
      "oll": 5303,
      "ound ": 5304,
      "ment ": 5305,
      "ore ": 5306,
      "sid": 5307,
      "00 ": 5308,
      "other ": 5309,
      "ut": 5310,
      "id ": 5311,
      "ain ": 5312,
      "have ": 5313,
      "and the ": 5314,
      "ill": 5315,
      "ion ": 5316,
      "fl": 5317,
      "fi": 5318,
      "aw": 5319,
      ".@ ": 5320,
      "@.@ ": 5321,
      "dis": 5322,
      "es , ": 5323,
      "gr": 5324,
      "er , ": 5325,
      "two ": 5326,
      "e the ": 5327,
      "shi": 5328,
      "bec": 5329,
      "bo": 5330,
      "who ": 5331,
      "ack ": 5332,
      "stor": 5333,
      "duc": 5334,
      "ver": 5335,
      ": ": 5336,
      "ph": 5337,
      "been ": 5338,
      "has ": 5339,
      "end": 5340,
      "sec": 5341,
      "ia ": 5342,
      "= \n": 5343,
      "over": 5344,
      ". S": 5345,
      "ru": 5346,
      "= = \n": 5347,
      ",@ ": 5348,
      "@,@ ": 5349,
      "ely ": 5350,
      "ey ": 5351,
      "201": 5352,
      "9 ": 5353,
      "des": 5354,
      "age ": 5355,
      "tive ": 5356,
      "au": 5357,
      "this ": 5358,
      "year": 5359,
      "ob": 5360,
      "form": 5361,
      "ass": 5362,
      "ting ": 5363,
      "clud": 5364,
      "ome ": 5365,
      "at the ": 5366,
      "ell": 5367,
      "I ": 5368,
      ". \" ": 5369,
      "comm": 5370,
      "pr": 5371,
      "mil": 5372,
      "ence ": 5373,
      "18": 5374,
      "ember ": 5375,
      "ack": 5376,
      "cre": 5377,
      "fin": 5378,
      "ant ": 5379,
      "and": 5380,
      "they ": 5381,
      "our ": 5382,
      "ous ": 5383,
      "' ": 5384,
      "min": 5385,
      "ight ": 5386,
      "with the ": 5387,
      " , and ": 5388,
      "Un": 5389,
      "from the ": 5390,
      "Mar": 5391,
      "sion ": 5392,
      "ue ": 5393,
      "ater ": 5394,
      "ish": 5395,
      "us ": 5396,
      "after ": 5397,
      "includ": 5398,
      "land ": 5399,
      "In": 5400,
      ". He ": 5401,
      "ical ": 5402,
      "fe": 5403,
      "ad ": 5404,
      "would ": 5405,
      "pe": 5406,
      "il ": 5407,
      "able ": 5408,
      "rit": 5409,
      "res": 5410,
      "y , ": 5411,
      "son ": 5412,
      "se ": 5413,
      "ial ": 5414,
      "as a ": 5415,
      "me": 5416,
      "over ": 5417,
      "ast": 5418,
      "ell ": 5419,
      " A": 5420,
      "ian ": 5421,
      "ed a ": 5422,
      "ree ": 5423,
      "eg": 5424,
      "ents ": 5425,
      "ft ": 5426,
      " = = = ": 5427,
      "pres": 5428,
      "play": 5429,
      "eral ": 5430,
      ". Th": 5431,
      "ess ": 5432,
      " @-@ ": 5433,
      "fil": 5434,
      "ren": 5435,
      "cri": 5436,
      " , the ": 5437,
      "man ": 5438,
      "inter": 5439,
      "char": 5440,
      "rem": 5441,
      "gu": 5442,
      "ade ": 5443,
      "pos": 5444,
      "enc": 5445,
      "iz": 5446,
      "pu": 5447,
      "ern ": 5448,
      "mer": 5449,
      "off": 5450,
      ". B": 5451,
      "= = = \n": 5452,
      "more ": 5453,
      "ty ": 5454,
      ". O": 5455,
      "ice ": 5456,
      "ess": 5457,
      "anc": 5458,
      "spec": 5459,
      "up ": 5460,
      "ese ": 5461,
      "ace ": 5462,
      "ann": 5463,
      "ates ": 5464,
      "that the ": 5465,
      "ons ": 5466,
      "bet": 5467,
      "ance ": 5468,
      "ke ": 5469,
      "ust ": 5470,
      "tic ": 5471,
      "x ": 5472,
      "ht ": 5473,
      "ond ": 5474,
      "most ": 5475,
      "a , ": 5476,
      "mar": 5477,
      "time ": 5478,
      "kn": 5479,
      "ile ": 5480,
      "der": 5481,
      "dec": 5482,
      "Au": 5483,
      "when ": 5484,
      "serv": 5485,
      "car": 5486,
      "int": 5487,
      "him ": 5488,
      "ong": 5489,
      "dur": 5490,
      "she ": 5491,
      ". It ": 5492,
      "um ": 5493,
      ". W": 5494,
      "ach": 5495,
      "ks ": 5496,
      "ited ": 5497,
      "iti": 5498,
      "only ": 5499,
      ") , ": 5500,
      "ist": 5501,
      "ite ": 5502,
      "as the ": 5503,
      "vid": 5504,
      "cent": 5505,
      "t of ": 5506,
      "aus": 5507,
      "sur": 5508,
      "in 19": 5509,
      "lar": 5510,
      "ish ": 5511,
      "reg": 5512,
      "thr": 5513,
      "sa": 5514,
      "An": 5515,
      "than ": 5516,
      "old ": 5517,
      "ations ": 5518,
      " I": 5519,
      "co": 5520,
      "ween ": 5521,
      "te ": 5522,
      "Ar": 5523,
      "end ": 5524,
      "sev": 5525,
      "tor": 5526,
      "row": 5527,
      "cor": 5528,
      "ric": 5529,
      "En": 5530,
      "tra": 5531,
      "about ": 5532,
      "ason ": 5533,
      "mon": 5534,
      "Al": 5535,
      "Th": 5536,
      "way ": 5537,
      "sy": 5538,
      "ans ": 5539,
      "ship ": 5540,
      "ased ": 5541,
      "amp": 5542,
      "pan": 5543,
      "enti": 5544,
      "atur": 5545,
      "ton ": 5546,
      "between ": 5547,
      "ist ": 5548,
      "tions ": 5549,
      "ood ": 5550,
      "rele": 5551,
      "ple ": 5552,
      "am ": 5553,
      "to": 5554,
      "up": 5555,
      "ook ": 5556,
      "ang": 5557,
      "sel": 5558,
      "of": 5559,
      "air": 5560,
      "rel": 5561,
      "num": 5562,
      "te": 5563,
      "produc": 5564,
      "ill ": 5565,
      "ollow": 5566,
      "king ": 5567,
      "ach ": 5568,
      "three ": 5569,
      ". M": 5570,
      "evel": 5571,
      "if": 5572,
      "ning ": 5573,
      "in a ": 5574,
      "A ": 5575,
      "into ": 5576,
      "tis": 5577,
      "tiv": 5578,
      "meric": 5579,
      "ational ": 5580,
      "gen": 5581,
      "ber": 5582,
      "ot ": 5583,
      "nor": 5584,
      "sub": 5585,
      "als ": 5586,
      "to be ": 5587,
      "new ": 5588,
      "\" , ": 5589,
      "res ": 5590,
      "@,@ 0": 5591,
      "rig": 5592,
      ". D": 5593,
      ". F": 5594,
      "ail": 5595,
      "Americ": 5596,
      "writ": 5597,
      "beg": 5598,
      "ind": 5599,
      "eb": 5600,
      "app": 5601,
      "ed , ": 5602,
      "ake ": 5603,
      "where ": 5604,
      "ose ": 5605,
      "Com": 5606,
      "coun": 5607,
      " In ": 5608,
      "game ": 5609,
      "Jo": 5610,
      "ement ": 5611,
      "sig": 5612,
      "ase ": 5613,
      "hel": 5614,
      "ry ": 5615,
      "though ": 5616,
      "ard": 5617,
      "ating ": 5618,
      "ten ": 5619,
      "fu": 5620,
      "film ": 5621,
      "recor": 5622,
      "ub": 5623,
      "ings ": 5624,
      "Par": 5625,
      "ous": 5626,
      "op ": 5627,
      "199": 5628,
      "es and ": 5629,
      "later ": 5630,
      "re ": 5631,
      "season ": 5632,
      "S ": 5633,
      "t , ": 5634,
      "struc": 5635,
      "oy": 5636,
      "mus": 5637,
      "loc": 5638,
      "vis": 5639,
      "riv": 5640,
      "buil": 5641,
      "tit": 5642,
      "inc": 5643,
      "ned ": 5644,
      "pp": 5645,
      "s , and ": 5646,
      "eng": 5647,
      "ked ": 5648,
      "by the ": 5649,
      "befor": 5650,
      "such ": 5651,
      "ma": 5652,
      "@,@ 000 ": 5653,
      "es of ": 5654,
      "Nor": 5655,
      "cap": 5656,
      "mo": 5657,
      "pol": 5658,
      "with a ": 5659,
      "Con": 5660,
      "New ": 5661,
      "he": 5662,
      "albu": 5663,
      "publ": 5664,
      "eam ": 5665,
      "ead ": 5666,
      "ected ": 5667,
      "outh ": 5668,
      "them ": 5669,
      "owev": 5670,
      "ste": 5671,
      "ear ": 5672,
      "sl": 5673,
      "made ": 5674,
      "follow": 5675,
      "om ": 5676,
      "then ": 5677,
      "ps ": 5678,
      "isod": 5679,
      "mat": 5680,
      "compl": 5681,
      "/ ": 5682,
      "ing a ": 5683,
      "Bri": 5684,
      "ble ": 5685,
      "ros": 5686,
      "ainst ": 5687,
      "nam": 5688,
      "ol ": 5689,
      "while ": 5690,
      "ea ": 5691,
      "with": 5692,
      "day ": 5693,
      "episod": 5694,
      "through ": 5695,
      "fac": 5696,
      "cho": 5697,
      "ant": 5698,
      "second ": 5699,
      "star": 5700,
      "les ": 5701,
      "mis": 5702,
      "inv": 5703,
      "against ": 5704,
      "sup": 5705,
      "ed that ": 5706,
      "many ": 5707,
      "br": 5708,
      "well ": 5709,
      "charac": 5710,
      "lin": 5711,
      "posi": 5712,
      "some ": 5713,
      "can ": 5714,
      "tri": 5715,
      "ari": 5716,
      "album ": 5717,
      "song ": 5718,
      "arm": 5719,
      "became ": 5720,
      "cur": 5721,
      "C ": 5722,
      "gl": 5723,
      "ily ": 5724,
      "mp": 5725,
      "no ": 5726,
      "number ": 5727,
      "call": 5728,
      "ect ": 5729,
      "fer": 5730,
      "de ": 5731,
      "mov": 5732,
      "cc": 5733,
      "it was ": 5734,
      "sing": 5735,
      "ince ": 5736,
      " S": 5737,
      "he was ": 5738,
      "early ": 5739,
      "United ": 5740,
      ". This ": 5741,
      "— ": 5742,
      "iver": 5743,
      "series ": 5744,
      "ne": 5745,
      "both ": 5746,
      "gre": 5747,
      "ed by the ": 5748,
      "tion of ": 5749,
      "being ": 5750,
      "poin": 5751,
      "work ": 5752,
      "known ": 5753,
      "Joh": 5754,
      "dep": 5755,
      "sist": 5756,
      "devel": 5757,
      "lion ": 5758,
      "lan": 5759,
      "ards ": 5760,
      "e and ": 5761,
      "adi": 5762,
      "ip": 5763,
      "ris": 5764,
      "there ": 5765,
      "olog": 5766,
      "ed in the ": 5767,
      "sul": 5768,
      "contin": 5769,
      "is a ": 5770,
      "bel": 5771,
      "lo": 5772,
      "direc": 5773,
      "ision ": 5774,
      "e , and ": 5775,
      "succ": 5776,
      "under ": 5777,
      "Le": 5778,
      "four ": 5779,
      "team ": 5780,
      "ays ": 5781,
      "ual ": 5782,
      "peri": 5783,
      "plac": 5784,
      "y of ": 5785,
      "orig": 5786,
      "ign ": 5787,
      "ower ": 5788,
      "w ": 5789,
      "10 ": 5790,
      "overn": 5791,
      "said ": 5792,
      "til": 5793,
      "cer": 5794,
      "ered ": 5795,
      "sm": 5796,
      "yp": 5797,
      "diff": 5798,
      "ames ": 5799,
      "rece": 5800,
      "Car": 5801,
      "Wor": 5802,
      "col": 5803,
      "ion": 5804,
      "several ": 5805,
      "rop": 5806,
      "ef": 5807,
      "high": 5808,
      "bro": 5809,
      ". A ": 5810,
      "Ger": 5811,
      "before ": 5812,
      "develop": 5813,
      "az": 5814,
      "did ": 5815,
      "could ": 5816,
      "ury ": 5817,
      "years ": 5818,
      "appear": 5819,
      "tran": 5820,
      "sk": 5821,
      "out": 5822,
      "American ": 5823,
      "tish ": 5824,
      "any ": 5825,
      "ually ": 5826,
      "ters ": 5827,
      "ound": 5828,
      "origin": 5829,
      "ought ": 5830,
      "org": 5831,
      "retur": 5832,
      "ept": 5833,
      "began ": 5834,
      "self ": 5835,
      "tical ": 5836,
      ". R": 5837,
      "during the ": 5838,
      "igh ": 5839,
      "til ": 5840,
      "ture ": 5841,
      " B": 5842,
      "view": 5843,
      "ative ": 5844,
      "Ju": 5845,
      "tor ": 5846,
      "ation of ": 5847,
      "acc": 5848,
      ". P": 5849,
      "sol": 5850,
      "offic": 5851,
      "lif": 5852,
      "ther": 5853,
      "17": 5854,
      "ward ": 5855,
      "ed on ": 5856,
      "owever , ": 5857,
      "go": 5858,
      "oci": 5859,
      ". On ": 5860,
      "ave ": 5861,
      "ale ": 5862,
      ", but ": 5863,
      "ass ": 5864,
      "win": 5865,
      " \" ": 5866,
      "descri": 5867,
      "194": 5868,
      "until ": 5869,
      "tak": 5870,
      "ne ": 5871,
      "was the ": 5872,
      "fam": 5873,
      "Sh": 5874,
      "story ": 5875,
      "line ": 5876,
      ". L": 5877,
      "leg": 5878,
      "Oc": 5879,
      "receiv": 5880,
      "dre": 5881,
      "ors ": 5882,
      "k , ": 5883,
      "t the ": 5884,
      "ond": 5885,
      "198": 5886,
      "ery ": 5887,
      "forc": 5888,
      "Cl": 5889,
      "oper": 5890,
      "pop": 5891,
      "ular ": 5892,
      "grou": 5893,
      "bor": 5894,
      "year ": 5895,
      "s the ": 5896,
      "tly ": 5897,
      "off ": 5898,
      "Wh": 5899,
      "ner ": 5900,
      "1 , ": 5901,
      "suppor": 5902,
      "ron": 5903,
      "ten": 5904,
      "ed for ": 5905,
      "Gre": 5906,
      "million ": 5907,
      "sign": 5908,
      " M": 5909,
      "emp": 5910,
      "back ": 5911,
      "ing to ": 5912,
      "had been ": 5913,
      ". Wh": 5914,
      "was a ": 5915,
      "ort ": 5916,
      "ever ": 5917,
      "my ": 5918,
      "ed and ": 5919,
      "Col": 5920,
      "eld ": 5921,
      "mod": 5922,
      "$ ": 5923,
      "Wil": 5924,
      "found ": 5925,
      "peo": 5926,
      "British ": 5927,
      "mi": 5928,
      "these ": 5929,
      "including ": 5930,
      "tain": 5931,
      "Jun": 5932,
      "continu": 5933,
      "ley ": 5934,
      "pri": 5935,
      "ird ": 5936,
      "stri": 5937,
      " ) ": 5938,
      "remain": 5939,
      "emb": 5940,
      "ures ": 5941,
      "side ": 5942,
      "bre": 5943,
      "abl": 5944,
      "t of the ": 5945,
      "eptember ": 5946,
      "ing , ": 5947,
      "ey": 5948,
      " and ": 5949,
      "m ) ": 5950,
      "sive ": 5951,
      "requ": 5952,
      "a f": 5953,
      "20 ": 5954,
      "took ": 5955,
      "0 , ": 5956,
      "ed with ": 5957,
      "long ": 5958,
      "September ": 5959,
      "ie ": 5960,
      "e , the ": 5961,
      "ful ": 5962,
      "becaus": 5963,
      "same ": 5964,
      "ory ": 5965,
      "Sc": 5966,
      "od ": 5967,
      "ick": 5968,
      ". After ": 5969,
      "tional ": 5970,
      "ek ": 5971,
      "play ": 5972,
      "resul": 5973,
      "around ": 5974,
      "ich": 5975,
      "each ": 5976,
      "enn": 5977,
      "batt": 5978,
      "do": 5979,
      "like ": 5980,
      "United St": 5981,
      "World ": 5982,
      "stral": 5983,
      "2 , ": 5984,
      "may ": 5985,
      "form ": 5986,
      "govern": 5987,
      " O": 5988,
      "episode ": 5989,
      "197": 5990,
      "5 , ": 5991,
      "dr": 5992,
      "Bl": 5993,
      "ection ": 5994,
      "196": 5995,
      "ash": 5996,
      "met": 5997,
      "gust ": 5998,
      "es to ": 5999,
      "ign": 6000,
      "Nov": 6001,
      "bur": 6002,
      "ed as ": 6003,
      "50 ": 6004,
      "ens": 6005,
      "ou ": 6006,
      "Jan": 6007,
      "repor": 6008,
      "bri": 6009,
      "pass": 6010,
      "ity of ": 6011,
      "down ": 6012,
      "describ": 6013,
      "s in ": 6014,
      "4 , ": 6015,
      ", which ": 6016,
      "ted to ": 6017,
      "state ": 6018,
      "compan": 6019,
      "tain ": 6020,
      "Fran": 6021,
      "jo": 6022,
      "stem ": 6023,
      "along ": 6024,
      "ath": 6025,
      "ving ": 6026,
      "mak": 6027,
      "s to ": 6028,
      "tober ": 6029,
      "3 , ": 6030,
      "lead": 6031,
      "October ": 6032,
      "music ": 6033,
      "August ": 6034,
      "national ": 6035,
      "John ": 6036,
      "into the ": 6037,
      "Austral": 6038,
      "a and ": 6039,
      "is the ": 6040,
      "such as ": 6041,
      "Har": 6042,
      "eff": 6043,
      "war": 6044,
      "of a ": 6045,
      "per ": 6046,
      ". E": 6047,
      "try ": 6048,
      "ali": 6049,
      "air ": 6050,
      "def": 6051,
      "Yor": 6052,
      "act ": 6053,
      " D": 6054,
      "ently ": 6055,
      "ech": 6056,
      "five ": 6057,
      "me ": 6058,
      "disc": 6059,
      "have been ": 6060,
      "ven": 6061,
      "own": 6062,
      "30 ": 6063,
      "appro": 6064,
      "uch ": 6065,
      "ly": 6066,
      "May ": 6067,
      "ivers": 6068,
      "ately ": 6069,
      "one of the ": 6070,
      "sou": 6071,
      "s , the ": 6072,
      "maj": 6073,
      "al , ": 6074,
      "For": 6075,
      "Dec": 6076,
      "s were ": 6077,
      "sion": 6078,
      "people ": 6079,
      "ough": 6080,
      "ure ": 6081,
      "som": 6082,
      "under": 6083,
      "eo ": 6084,
      "contro": 6085,
      "thern ": 6086,
      "giv": 6087,
      "Pro": 6088,
      "Sp": 6089,
      "for a ": 6090,
      "led ": 6091,
      "band ": 6092,
      "du": 6093,
      "af": 6094,
      "dra": 6095,
      "Can": 6096,
      "resp": 6097,
      "complet": 6098,
      "6 , ": 6099,
      "during ": 6100,
      "July ": 6101,
      "es in ": 6102,
      "men ": 6103,
      "ounc": 6104,
      "hal": 6105,
      "United States ": 6106,
      "November ": 6107,
      "aw ": 6108,
      "consid": 6109,
      "caus": 6110,
      "partic": 6111,
      "det": 6112,
      "ism ": 6113,
      "vari": 6114,
      "high ": 6115,
      "gra": 6116,
      "ext ": 6117,
      "ful": 6118,
      "ah": 6119,
      ". C": 6120,
      ". Al": 6121,
      "sequ": 6122,
      "since ": 6123,
      "bi": 6124,
      "12 ": 6125,
      "red ": 6126,
      "uary ": 6127,
      ". They ": 6128,
      "run": 6129,
      "arly ": 6130,
      " 's ": 6131,
      "set ": 6132,
      "open": 6133,
      "dam": 6134,
      "Gu": 6135,
      "Apr": 6136,
      "os ": 6137,
      "son": 6138,
      "did not ": 6139,
      "a 's ": 6140,
      "Li": 6141,
      "ished ": 6142,
      ". N": 6143,
      "\" and ": 6144,
      "coll": 6145,
      "cul": 6146,
      "area ": 6147,
      "provid": 6148,
      "incre": 6149,
      ". In the ": 6150,
      "ets ": 6151,
      "larg": 6152,
      "Ph": 6153,
      "15 ": 6154,
      "Ge": 6155,
      "ane ": 6156,
      "even ": 6157,
      "medi": 6158,
      "er and ": 6159,
      ". \" \n": 6160,
      "tre": 6161,
      "Pl": 6162,
      "o , ": 6163,
      "to a ": 6164,
      "ire ": 6165,
      "scho": 6166,
      "ouse ": 6167,
      "used ": 6168,
      "Eu": 6169,
      "bas": 6170,
      "udi": 6171,
      "will ": 6172,
      " F": 6173,
      "what ": 6174,
      "dition ": 6175,
      "Indi": 6176,
      "ise ": 6177,
      "left ": 6178,
      "dem": 6179,
      "if ": 6180,
      "due ": 6181,
      "differ": 6182,
      "now ": 6183,
      "ick ": 6184,
      "chil": 6185,
      "has been ": 6186,
      "cas": 6187,
      "fun": 6188,
      "es the ": 6189,
      "ug": 6190,
      "released ": 6191,
      "dea": 6192,
      "inst": 6193,
      "..": 6194,
      "expl": 6195,
      "ogra": 6196,
      "December ": 6197,
      "her": 6198,
      "another ": 6199,
      "January ": 6200,
      "lim": 6201,
      "Gr": 6202,
      "June ": 6203,
      "large ": 6204,
      "aug": 6205,
      "much ": 6206,
      "sum": 6207,
      "show ": 6208,
      "Char": 6209,
      "position ": 6210,
      "cla": 6211,
      "vic": 6212,
      "es ( ": 6213,
      "wro": 6214,
      "place ": 6215,
      "omin": 6216,
      "ati": 6217,
      "Qu": 6218,
      "cour": 6219,
      "single ": 6220,
      "Ro": 6221,
      "west ": 6222,
      "March ": 6223,
      "ded ": 6224,
      "Jap": 6225,
      "gener": 6226,
      "third ": 6227,
      "cording ": 6228,
      "city ": 6229,
      "character ": 6230,
      "system ": 6231,
      "comp": 6232,
      "itt": 6233,
      "[ ": 6234,
      "equ": 6235,
      "very ": 6236,
      "called ": 6237,
      "adv": 6238,
      "US ": 6239,
      "government ": 6240,
      "April ": 6241,
      "critic": 6242,
      "es were ": 6243,
      "North ": 6244,
      ", a ": 6245,
      "ins ": 6246,
      "ility ": 6247,
      "on a ": 6248,
      "u ": 6249,
      "after the ": 6250,
      "exp": 6251,
      "fa": 6252,
      "del": 6253,
      "previ": 6254,
      "ock": 6255,
      "as well ": 6256,
      "% ": 6257,
      "ying ": 6258,
      "final ": 6259,
      "ific": 6260,
      "y and ": 6261,
      "rev": 6262,
      "War ": 6263,
      "species ": 6264,
      "] ": 6265,
      "fur": 6266,
      "ers , ": 6267,
      "esp": 6268,
      "dge ": 6269,
      "tal": 6270,
      "hor": 6271,
      "pur": 6272,
      "just ": 6273,
      "resid": 6274,
      "ms ": 6275,
      "forman": 6276,
      "port": 6277,
      "field ": 6278,
      "9 , ": 6279,
      "er 's ": 6280,
      "ys": 6281,
      "ature ": 6282,
      "issu": 6283,
      "Fl": 6284,
      "century ": 6285,
      "do ": 6286,
      "Bar": 6287,
      "prot": 6288,
      "D ": 6289,
      "organ": 6290,
      ". She ": 6291,
      "based ": 6292,
      "flu": 6293,
      "eer ": 6294,
      "York ": 6295,
      ", and the ": 6296,
      "till ": 6297,
      "ects ": 6298,
      ") and ": 6299,
      "cu": 6300,
      "beli": 6301,
      "erg": 6302,
      "group ": 6303,
      "ties ": 6304,
      "ague ": 6305,
      "ef ": 6306,
      "Eng": 6307,
      "7 , ": 6308,
      "fic": 6309,
      "world ": 6310,
      "right ": 6311,
      "attemp": 6312,
      "following ": 6313,
      "8 , ": 6314,
      "195": 6315,
      "II ": 6316,
      "Gen": 6317,
      "ground ": 6318,
      "ball ": 6319,
      "16": 6320,
      "eav": 6321,
      "z ": 6322,
      "oon ": 6323,
      "ean ": 6324,
      "193": 6325,
      "scor": 6326,
      "elev": 6327,
      "raft ": 6328,
      "releas": 6329,
      "less ": 6330,
      "11 ": 6331,
      "\" . \n": 6332,
      "ind ": 6333,
      "life ": 6334,
      "over the ": 6335,
      "ebru": 6336,
      "as \" ": 6337,
      "to re": 6338,
      "can": 6339,
      "record ": 6340,
      "pi": 6341,
      "10": 6342,
      "Cor": 6343,
      "Mc": 6344,
      "ebruary ": 6345,
      "allow": 6346,
      "use ": 6347,
      "main ": 6348,
      "chang": 6349,
      "o @-@ ": 6350,
      "stit": 6351,
      "ext": 6352,
      "stud": 6353,
      "ants ": 6354,
      "thing ": 6355,
      "th , ": 6356,
      "scen": 6357,
      "ether ": 6358,
      "South ": 6359,
      "Bo": 6360,
      "held ": 6361,
      "la": 6362,
      "show": 6363,
      "ed his ": 6364,
      "performan": 6365,
      "'t ": 6366,
      "still ": 6367,
      "next ": 6368,
      "Di": 6369,
      "Mus": 6370,
      "February ": 6371,
      "ord": 6372,
      " = ": 6373,
      "last ": 6374,
      "family ": 6375,
      "dist": 6376,
      "aff": 6377,
      "best ": 6378,
      "b ": 6379,
      "some": 6380,
      ", \" ": 6381,
      "ney ": 6382,
      "construc": 6383,
      "built ": 6384,
      "popul": 6385,
      "im ": 6386,
      "ock ": 6387,
      "original ": 6388,
      "oute ": 6389,
      "Ac": 6390,
      "fri": 6391,
      ". However , ": 6392,
      "main": 6393,
      "rais": 6394,
      "because ": 6395,
      "Mon": 6396,
      "prov": 6397,
      "mor": 6398,
      "able to ": 6399,
      "late ": 6400,
      "eas ": 6401,
      "near ": 6402,
      "ive ": 6403,
      "although ": 6404,
      "war ": 6405,
      "town ": 6406,
      "tro": 6407,
      "ation , ": 6408,
      "ously ": 6409,
      "name ": 6410,
      "wat": 6411,
      "Fren": 6412,
      "initi": 6413,
      "25 ": 6414,
      "video ": 6415,
      "kill": 6416,
      "establ": 6417,
      "German ": 6418,
      "olv": 6419,
      " H": 6420,
      "read": 6421,
      "Re": 6422,
      "on , ": 6423,
      "Ma": 6424,
      "ities ": 6425,
      "gam": 6426,
      "mag": 6427,
      "major ": 6428,
      "poli": 6429,
      "them": 6430,
      "ing and ": 6431,
      " T": 6432,
      "cep": 6433,
      "success": 6434,
      "reach": 6435,
      "would be ": 6436,
      "wom": 6437,
      "tively ": 6438,
      "ropical ": 6439,
      "proc": 6440,
      "home ": 6441,
      "present": 6442,
      "ford ": 6443,
      "again ": 6444,
      "ended ": 6445,
      "National ": 6446,
      "inn": 6447,
      "Man": 6448,
      "number of ": 6449,
      "gg": 6450,
      "Ad": 6451,
      "clos": 6452,
      "14 ": 6453,
      "version ": 6454,
      "18 ": 6455,
      "hum": 6456,
      "ina ": 6457,
      "ett": 6458,
      "auth": 6459,
      "simil": 6460,
      "that he ": 6461,
      "camp": 6462,
      "dg": 6463,
      "lat": 6464,
      "ships ": 6465,
      "dro": 6466,
      "rac": 6467,
      "New York ": 6468,
      "water ": 6469,
      "itary ": 6470,
      "respon": 6471,
      "s . \n": 6472,
      "Per": 6473,
      "small ": 6474,
      ". It was ": 6475,
      "16 ": 6476,
      "sen": 6477,
      "ok": 6478,
      "former ": 6479,
      "wrote ": 6480,
      "13 ": 6481,
      "north ": 6482,
      "yl": 6483,
      "ith ": 6484,
      "embers ": 6485,
      "often ": 6486,
      "six ": 6487,
      "eal": 6488,
      "pris": 6489,
      "ove ": 6490,
      "Willi": 6491,
      "of his ": 6492,
      "half ": 6493,
      "French ": 6494,
      "stat": 6495,
      "those ": 6496,
      "ution ": 6497,
      "roy": 6498,
      "elec": 6499,
      "100 ": 6500,
      ": \" ": 6501,
      "histor": 6502,
      "came ": 6503,
      "hol": 6504,
      "manag": 6505,
      "sch": 6506,
      "sible ": 6507,
      "in his ": 6508,
      "ands ": 6509,
      "design": 6510,
      "den ": 6511,
      "received ": 6512,
      "perform": 6513,
      "in 200": 6514,
      ". As ": 6515,
      "action ": 6516,
      "ret": 6517,
      "ious ": 6518,
      "England ": 6519,
      "hy": 6520,
      "times ": 6521,
      "role ": 6522,
      "tot": 6523,
      "pit": 6524,
      "it is ": 6525,
      "rang": 6526,
      "typ": 6527,
      "storm ": 6528,
      "believ": 6529,
      "in 18": 6530,
      "Univers": 6531,
      "40 ": 6532,
      "ers and ": 6533,
      "estern ": 6534,
      "oot": 6535,
      "head ": 6536,
      "bar": 6537,
      "make ": 6538,
      "ke": 6539,
      "anti": 6540,
      "ington ": 6541,
      "ograph": 6542,
      "t and ": 6543,
      "you ": 6544,
      "; the ": 6545,
      "view ": 6546,
      "claim": 6547,
      "Rob": 6548,
      "El": 6549,
      "ik": 6550,
      "vo": 6551,
      "Co": 6552,
      "lik": 6553,
      "Engl": 6554,
      "ements ": 6555,
      "public ": 6556,
      "spir": 6557,
      "erc": 6558,
      "one of ": 6559,
      ". Dur": 6560,
      "Coun": 6561,
      "divid": 6562,
      "members ": 6563,
      ".S": 6564,
      "craft ": 6565,
      "inf": 6566,
      "wee": 6567,
      "commun": 6568,
      "song": 6569,
      "m ( ": 6570,
      "Pr": 6571,
      "sit": 6572,
      "tow": 6573,
      "ange ": 6574,
      "went ": 6575,
      "anim": 6576,
      "arch": 6577,
      "cording to ": 6578,
      ". His ": 6579,
      "without ": 6580,
      "club": 6581,
      "we ": 6582,
      "order ": 6583,
      "soci": 6584,
      "studi": 6585,
      "Su": 6586,
      "Inter": 6587,
      "local ": 6588,
      "different ": 6589,
      "south ": 6590,
      "written ": 6591,
      "ality ": 6592,
      "ute ": 6593,
      "games ": 6594,
      "ress ": 6595,
      "named ": 6596,
      "Ser": 6597,
      "power ": 6598,
      "Or": 6599,
      "back": 6600,
      "attack": 6601,
      "ep ": 6602,
      "new": 6603,
      "influ": 6604,
      "t to ": 6605,
      "es . \n": 6606,
      "an , ": 6607,
      "Riv": 6608,
      "period ": 6609,
      "ject ": 6610,
      "pat": 6611,
      "refer": 6612,
      "rest": 6613,
      "a \" ": 6614,
      "quar": 6615,
      "whil": 6616,
      "Cent": 6617,
      "War": 6618,
      "roc": 6619,
      "him": 6620,
      "head": 6621,
      "among ": 6622,
      "ody ": 6623,
      ". When ": 6624,
      "dest": 6625,
      "sugg": 6626,
      "los": 6627,
      "track ": 6628,
      "ing of ": 6629,
      "ittle ": 6630,
      "road ": 6631,
      "let": 6632,
      "epar": 6633,
      "ental ": 6634,
      " On ": 6635,
      "rown ": 6636,
      "fron": 6637,
      "and a ": 6638,
      "list": 6639,
      "15": 6640,
      "reet ": 6641,
      "tem": 6642,
      "17 ": 6643,
      "top ": 6644,
      "part of the ": 6645,
      "Lond": 6646,
      "ak ": 6647,
      "defe": 6648,
      "els ": 6649,
      "person": 6650,
      "Rec": 6651,
      "U.S": 6652,
      "thers ": 6653,
      "death ": 6654,
      "sed ": 6655,
      "join": 6656,
      "Be": 6657,
      "given ": 6658,
      "Batt": 6659,
      "ted by ": 6660,
      "fied ": 6661,
      "ham ": 6662,
      "ium ": 6663,
      "further ": 6664,
      "ted the ": 6665,
      "match ": 6666,
      "amm": 6667,
      "production ": 6668,
      "liv": 6669,
      "decid": 6670,
      "event": 6671,
      "featur": 6672,
      "announc": 6673,
      "between the ": 6674,
      "val": 6675,
      "comb": 6676,
      "gave ": 6677,
      "Wal": 6678,
      "that \" ": 6679,
      "player ": 6680,
      "exam": 6681,
      "on @-@ ": 6682,
      "1 @.@ ": 6683,
      "contr": 6684,
      "English ": 6685,
      "ta": 6686,
      "cop": 6687,
      ". G": 6688,
      "dren ": 6689,
      "ubl": 6690,
      "Tim": 6691,
      "ially ": 6692,
      "onom": 6693,
      "review": 6694,
      "of S": 6695,
      "ation of the ": 6696,
      "stric": 6697,
      "Pol": 6698,
      "ized ": 6699,
      "Ed": 6700,
      "building ": 6701,
      "ref": 6702,
      "days ": 6703,
      "City ": 6704,
      "0s ": 6705,
      "east ": 6706,
      "ni": 6707,
      "heav": 6708,
      "imp": 6709,
      "father ": 6710,
      "ral ": 6711,
      "book ": 6712,
      "Min": 6713,
      "stated ": 6714,
      "ony ": 6715,
      "had a ": 6716,
      "cast ": 6717,
      "take ": 6718,
      "Is": 6719,
      "As": 6720,
      "age of ": 6721,
      "lead ": 6722,
      "ili": 6723,
      "ator ": 6724,
      "trans": 6725,
      "elevision ": 6726,
      "youn": 6727,
      "sal": 6728,
      "ampion": 6729,
      "Af": 6730,
      "xim": 6731,
      "lost ": 6732,
      ". By ": 6733,
      "cros": 6734,
      "sions ": 6735,
      "ort": 6736,
      "school ": 6737,
      "sent ": 6738,
      ") \n": 6739,
      "mul": 6740,
      ". K": 6741,
      "cr": 6742,
      "ker ": 6743,
      "get ": 6744,
      "land": 6745,
      "es of the ": 6746,
      "agre": 6747,
      "ably ": 6748,
      "24 ": 6749,
      "eh": 6750,
      "urric": 6751,
      "away ": 6752,
      "Dav": 6753,
      "R ": 6754,
      "West ": 6755,
      "ed at ": 6756,
      "ns ": 6757,
      "Canad": 6758,
      "in which ": 6759,
      "board ": 6760,
      "month": 6761,
      "replac": 6762,
      "gun": 6763,
      "through the ": 6764,
      "career ": 6765,
      "Div": 6766,
      "cy": 6767,
      "ically ": 6768,
      "tion of the ": 6769,
      "Ex": 6770,
      "oughout ": 6771,
      "sw": 6772,
      "suff": 6773,
      "arti": 6774,
      "grad": 6775,
      "similar ": 6776,
      "hear": 6777,
      "never ": 6778,
      "ions ": 6779,
      "ed to the ": 6780,
      "of M": 6781,
      "becom": 6782,
      "aircraft ": 6783,
      "yle ": 6784,
      "ams ": 6785,
      "Rom": 6786,
      "ential ": 6787,
      "military ": 6788,
      "aver": 6789,
      "himself ": 6790,
      "Comm": 6791,
      "ship": 6792,
      "Rus": 6793,
      "mark": 6794,
      "V ": 6795,
      "har": 6796,
      "ling ": 6797,
      "mer ": 6798,
      "become ": 6799,
      "run ": 6800,
      "how ": 6801,
      "development ": 6802,
      "nec": 6803,
      "arriv": 6804,
      "ens ": 6805,
      "th century ": 6806,
      "win ": 6807,
      "urch ": 6808,
      "ron ": 6809,
      "ed that the ": 6810,
      "night ": 6811,
      ", who ": 6812,
      "intro": 6813,
      "import": 6814,
      "cle": 6815,
      "spe": 6816,
      "ribu": 6817,
      "attack ": 6818,
      "consider": 6819,
      "present ": 6820,
      "ide ": 6821,
      "fail": 6822,
      "... ": 6823,
      "22 ": 6824,
      "ed to be ": 6825,
      "add": 6826,
      "under the ": 6827,
      "ex ": 6828,
      "fel": 6829,
      "At": 6830,
      "acros": 6831,
      "not": 6832,
      "carri": 6833,
      "bus": 6834,
      "es that ": 6835,
      "force ": 6836,
      "gar": 6837,
      "curren": 6838,
      "having ": 6839,
      "21 ": 6840,
      "company ": 6841,
      "ed from ": 6842,
      "can be ": 6843,
      "men": 6844,
      "included ": 6845,
      "cat": 6846,
      "children ": 6847,
      "was not ": 6848,
      "Scot": 6849,
      "thre": 6850,
      "wea": 6851,
      "contain": 6852,
      "fre": 6853,
      "act": 6854,
      "more than ": 6855,
      "hom": 6856,
      "light ": 6857,
      "due to ": 6858,
      "atures ": 6859,
      "sci": 6860,
      "lev": 6861,
      "anese ": 6862,
      "as well as ": 6863,
      "vir": 6864,
      "ploy": 6865,
      "prof": 6866,
      "involv": 6867,
      "13": 6868,
      "eas": 6869,
      "squ": 6870,
      "General ": 6871,
      "ana ": 6872,
      "Sy": 6873,
      "Rep": 6874,
      "omb": 6875,
      "concer": 6876,
      "ending ": 6877,
      "signific": 6878,
      "against the ": 6879,
      "campa": 6880,
      "taken ": 6881,
      "London ": 6882,
      "Australia ": 6883,
      "they were ": 6884,
      "ends ": 6885,
      "tig": 6886,
      "change ": 6887,
      "previous ": 6888,
      "e , but ": 6889,
      "aur": 6890,
      "part of ": 6891,
      "sing ": 6892,
      "total ": 6893,
      "ogether ": 6894,
      "es . The ": 6895,
      ". These ": 6896,
      "ert ": 6897,
      "ei": 6898,
      "house ": 6899,
      "tropical ": 6900,
      "fav": 6901,
      "State ": 6902,
      ". J": 6903,
      "Sec": 6904,
      "ems ": 6905,
      "short ": 6906,
      "ank ": 6907,
      "consist": 6908,
      "dom ": 6909,
      "vol": 6910,
      "out of ": 6911,
      "seen ": 6912,
      "Mic": 6913,
      " L": 6914,
      "fle": 6915,
      "bit": 6916,
      "Her": 6917,
      "low ": 6918,
      "which was ": 6919,
      "Hi": 6920,
      "ology ": 6921,
      "pow": 6922,
      "or , ": 6923,
      "good ": 6924,
      "km ": 6925,
      "train": 6926,
      "control ": 6927,
      "trav": 6928,
      "s of the ": 6929,
      "eight ": 6930,
      "country ": 6931,
      "rol": 6932,
      " C": 6933,
      "boo": 6934,
      "den": 6935,
      "ses ": 6936,
      "ring ": 6937,
      "experi": 6938,
      "go ": 6939,
      "icul": 6940,
      "performance ": 6941,
      "created ": 6942,
      "ank": 6943,
      "history ": 6944,
      "introduc": 6945,
      "t 's ": 6946,
      "television ": 6947,
      "surv": 6948,
      "med": 6949,
      "ways ": 6950,
      "onn": 6951,
      "occur": 6952,
      "areas ": 6953,
      "orge ": 6954,
      "Ang": 6955,
      "compar": 6956,
      "return ": 6957,
      "23 ": 6958,
      "marri": 6959,
      "idd": 6960,
      "cir": 6961,
      "River ": 6962,
      "ounds ": 6963,
      "Roy": 6964,
      "ever": 6965,
      "ed \" ": 6966,
      "s , but ": 6967,
      "190": 6968,
      "however , ": 6969,
      "vill": 6970,
      "service ": 6971,
      "ang ": 6972,
      "Tr": 6973,
      " P": 6974,
      ". He was ": 6975,
      "No": 6976,
      ", he ": 6977,
      "Japanese ": 6978,
      "2010 ": 6979,
      "ration ": 6980,
      "Division ": 6981,
      "60 ": 6982,
      "at a ": 6983,
      "design ": 6984,
      "into a ": 6985,
      "rist": 6986,
      "tour": 6987,
      "rest ": 6988,
      "mission ": 6989,
      "release ": 6990,
      "should ": 6991,
      "urricane ": 6992,
      ". Ac": 6993,
      ". Although ": 6994,
      "ver ": 6995,
      "work": 6996,
      "s . The ": 6997,
      "scri": 6998,
      "cent ": 6999,
      "opp": 7000,
      "nov": 7001,
      "great ": 7002,
      ": \n": 7003,
      "title ": 7004,
      "owever ": 7005,
      "tory ": 7006,
      "inj": 7007,
      "four": 7008,
      "Street ": 7009,
      "William ": 7010,
      "ost": 7011,
      "King ": 7012,
      "pea": 7013,
      "augh": 7014,
      "Nav": 7015,
      "wan": 7016,
      "doc": 7017,
      "a ( ": 7018,
      "ety ": 7019,
      "L ": 7020,
      "political ": 7021,
      "es , and ": 7022,
      "shar": 7023,
      "cast": 7024,
      "ior ": 7025,
      "e @-@ ": 7026,
      "27 ": 7027,
      "hon": 7028,
      "face ": 7029,
      "suggest": 7030,
      "tech": 7031,
      ". There ": 7032,
      "prob": 7033,
      "played ": 7034,
      "point ": 7035,
      "en , ": 7036,
      "art ": 7037,
      "ern": 7038,
      "Mor": 7039,
      "’ ": 7040,
      "various ": 7041,
      "the first ": 7042,
      "28 ": 7043,
      "of B": 7044,
      "throughout ": 7045,
      "wood ": 7046,
      "tin ": 7047,
      "Reg": 7048,
      "radi": 7049,
      "together ": 7050,
      "ici": 7051,
      "too ": 7052,
      "gran": 7053,
      "include ": 7054,
      "come ": 7055,
      ") . \n": 7056,
      "when the ": 7057,
      "increas": 7058,
      "audi": 7059,
      "es are ": 7060,
      "George ": 7061,
      "seven ": 7062,
      "site ": 7063,
      "iter": 7064,
      "wards ": 7065,
      "ed by a ": 7066,
      "propos": 7067,
      "ability ": 7068,
      "ing in ": 7069,
      "publish": 7070,
      "characters ": 7071,
      "little ": 7072,
      "earli": 7073,
      "peti": 7074,
      "ood": 7075,
      "ler ": 7076,
      "ch , ": 7077,
      "as an ": 7078,
      "@.@ 5 ": 7079,
      "fire ": 7080,
      "ital ": 7081,
      "ularly ": 7082,
      "1 @,@ ": 7083,
      "won ": 7084,
      "member ": 7085,
      "hous": 7086,
      "ure": 7087,
      "earch ": 7088,
      "tar": 7089,
      "Pet": 7090,
      "ering ": 7091,
      "thought ": 7092,
      "Road ": 7093,
      "League ": 7094,
      "time , ": 7095,
      "strong ": 7096,
      "minist": 7097,
      "comman": 7098,
      ". For ": 7099,
      "es in the ": 7100,
      "ority ": 7101,
      "ah ": 7102,
      "Cap": 7103,
      "New": 7104,
      "ics ": 7105,
      "used to ": 7106,
      "James ": 7107,
      "reported ": 7108,
      "making ": 7109,
      "felt ": 7110,
      "ts , ": 7111,
      " R": 7112,
      "Australian ": 7113,
      "mi ": 7114,
      "26 ": 7115,
      "end of the ": 7116,
      "Vi": 7117,
      ". At ": 7118,
      "film": 7119,
      "grow": 7120,
      "hind ": 7121,
      "and was ": 7122,
      "long": 7123,
      "14": 7124,
      "2011 ": 7125,
      "born ": 7126,
      "eventually ": 7127,
      "ments ": 7128,
      " ( ": 7129,
      "noted ": 7130,
      "sil": 7131,
      "ze ": 7132,
      "live ": 7133,
      "before the ": 7134,
      "in S": 7135,
      "using ": 7136,
      "sian ": 7137,
      "feet ": 7138,
      "sold ": 7139,
      "track": 7140,
      "located ": 7141,
      " W": 7142,
      "voc": 7143,
      "ing that ": 7144,
      "sha": 7145,
      "week ": 7146,
      "ut ": 7147,
      "ts of ": 7148,
      "ats ": 7149,
      "tradi": 7150,
      "US": 7151,
      "er of ": 7152,
      "Afric": 7153,
      "bir": 7154,
      "emor": 7155,
      "about the ": 7156,
      "represent": 7157,
      "common ": 7158,
      "ink ": 7159,
      "saw ": 7160,
      "em ": 7161,
      "Bi": 7162,
      "ensive ": 7163,
      "que ": 7164,
      "Hen": 7165,
      "in 199": 7166,
      "instead ": 7167,
      "compos": 7168,
      "and S": 7169,
      "leav": 7170,
      "respec": 7171,
      "body ": 7172,
      "Br": 7173,
      "identi": 7174,
      "lab": 7175,
      "hun": 7176,
      "estim": 7177,
      "indu": 7178,
      "yn": 7179,
      "jec": 7180,
      "O ": 7181,
      "Army ": 7182,
      "ency ": 7183,
      "Ne": 7184,
      "once ": 7185,
      "moun": 7186,
      "inning ": 7187,
      "i , ": 7188,
      "ation and ": 7189,
      "destroy": 7190,
      "sib": 7191,
      "ia , ": 7192,
      "en 's ": 7193,
      "presid": 7194,
      "ootball ": 7195,
      "tics ": 7196,
      "re @-@ ": 7197,
      "bridge ": 7198,
      "Bro": 7199,
      "fem": 7200,
      "players ": 7201,
      "cover": 7202,
      "for his ": 7203,
      "rep": 7204,
      "style ": 7205,
      "part ": 7206,
      "was also ": 7207,
      "aj": 7208,
      "ingdom ": 7209,
      "important ": 7210,
      "19 ": 7211,
      "Euro": 7212,
      "prais": 7213,
      "tice ": 7214,
      "ement": 7215,
      "sett": 7216,
      "uk": 7217,
      "ris ": 7218,
      "2008 ": 7219,
      "rather ": 7220,
      "vision ": 7221,
      "behind ": 7222,
      "campaign ": 7223,
      "relation": 7224,
      "class ": 7225,
      "y 's ": 7226,
      "Gl": 7227,
      "ing his ": 7228,
      "establish": 7229,
      "29 ": 7230,
      "exc": 7231,
      "\" the ": 7232,
      "prac": 7233,
      "tern": 7234,
      "hael ": 7235,
      "nomin": 7236,
      "ific ": 7237,
      "popular ": 7238,
      "wide ": 7239,
      "189": 7240,
      "edi": 7241,
      "scre": 7242,
      "natur": 7243,
      "km ) ": 7244,
      ". In": 7245,
      "ash ": 7246,
      "fif": 7247,
      "in ) ": 7248,
      "aged ": 7249,
      "electr": 7250,
      "port ": 7251,
      "ent , ": 7252,
      "ds of ": 7253,
      "support ": 7254,
      "pen": 7255,
      "level ": 7256,
      "N ": 7257,
      "2012 ": 7258,
      "either ": 7259,
      "e 's ": 7260,
      "draw": 7261,
      "ences ": 7262,
      "les": 7263,
      "while the ": 7264,
      "wif": 7265,
      "subsequ": 7266,
      "Royal ": 7267,
      "ax": 7268,
      "ib": 7269,
      "figh": 7270,
      "addition ": 7271,
      "white ": 7272,
      "che": 7273,
      "difficul": 7274,
      ". It is ": 7275,
      "ord ": 7276,
      "ages ": 7277,
      "from a ": 7278,
      "ed of ": 7279,
      "Franc": 7280,
      "separ": 7281,
      "associ": 7282,
      "East ": 7283,
      "achi": 7284,
      "fig": 7285,
      "80 ": 7286,
      "Thom": 7287,
      "features ": 7288,
      "rul": 7289,
      "BC ": 7290,
      "route ": 7291,
      "round ": 7292,
      "law": 7293,
      "s , which ": 7294,
      " A ": 7295,
      "ston ": 7296,
      "cam": 7297,
      "stre": 7298,
      "has a ": 7299,
      "originally ": 7300,
      ". At the ": 7301,
      "Fin": 7302,
      "dou": 7303,
      "s that ": 7304,
      "2009 ": 7305,
      "gun ": 7306,
      "ush": 7307,
      "working ": 7308,
      "righ": 7309,
      "Europ": 7310,
      "alist ": 7311,
      "Mad": 7312,
      "almost ": 7313,
      "dev": 7314,
      "ines ": 7315,
      "ed on the ": 7316,
      "\" The ": 7317,
      "County ": 7318,
      "\" . The ": 7319,
      "shor": 7320,
      "in B": 7321,
      "rap": 7322,
      "every ": 7323,
      "post": 7324,
      "res ( ": 7325,
      "Vir": 7326,
      "points ": 7327,
      "ust": 7328,
      "effor": 7329,
      "th and ": 7330,
      "troop": 7331,
      "Ital": 7332,
      "laun": 7333,
      "Chris": 7334,
      "200 ": 7335,
      "e , which ": 7336,
      "km / ": 7337,
      "cel": 7338,
      "Ear": 7339,
      "put ": 7340,
      "scrip": 7341,
      "neg": 7342,
      "l @-@ ": 7343,
      "avail": 7344,
      "es a ": 7345,
      "order": 7346,
      "resident ": 7347,
      "World War ": 7348,
      "ession ": 7349,
      "tion = = \n": 7350,
      "return": 7351,
      ") , and ": 7352,
      "anding ": 7353,
      "0 @.@ ": 7354,
      "el , ": 7355,
      "mother ": 7356,
      "heavy ": 7357,
      "young ": 7358,
      "possible ": 7359,
      "addi": 7360,
      "s are ": 7361,
      "pain": 7362,
      ", with ": 7363,
      "mir": 7364,
      "an 's ": 7365,
      "Scho": 7366,
      "aul": 7367,
      " = = = = ": 7368,
      "brought ": 7369,
      "all , ": 7370,
      "dic": 7371,
      "hand": 7372,
      "up to ": 7373,
      "E ": 7374,
      "mater": 7375,
      "econom": 7376,
      "successful ": 7377,
      "Sch": 7378,
      "individ": 7379,
      "\" was ": 7380,
      "ological ": 7381,
      "she was ": 7382,
      "ready ": 7383,
      "plan": 7384,
      "signed ": 7385,
      "s a ": 7386,
      "ama ": 7387,
      "observ": 7388,
      "least ": 7389,
      "organiz": 7390,
      "km / h ": 7391,
      "ra ": 7392,
      "itted ": 7393,
      "minut": 7394,
      "piec": 7395,
      "atic ": 7396,
      "busin": 7397,
      "general ": 7398,
      "Pri": 7399,
      "towards ": 7400,
      "hour": 7401,
      "ence of ": 7402,
      "stand": 7403,
      "recog": 7404,
      "comment": 7405,
      "\" , and ": 7406,
      "tian ": 7407,
      "say": 7408,
      "race ": 7409,
      "Park ": 7410,
      "eph": 7411,
      "exist": 7412,
      " After ": 7413,
      "indic": 7414,
      "elling ": 7415,
      "nd ": 7416,
      "ashington ": 7417,
      "non @-@ ": 7418,
      "ate the ": 7419,
      "plann": 7420,
      "down": 7421,
      "ampionship ": 7422,
      "conn": 7423,
      "close ": 7424,
      "region ": 7425,
      "modern ": 7426,
      "considered ": 7427,
      "fully ": 7428,
      "educ": 7429,
      "prec": 7430,
      "500 ": 7431,
      "he had ": 7432,
      "stry ": 7433,
      "s in the ": 7434,
      "2007 ": 7435,
      "east": 7436,
      "loo": 7437,
      "conv": 7438,
      "Best ": 7439,
      "Mal": 7440,
      "ches ": 7441,
      "John": 7442,
      "ated the ": 7443,
      "art": 7444,
      "along the ": 7445,
      "Cour": 7446,
      "black ": 7447,
      "Cre": 7448,
      "see ": 7449,
      "n 't ": 7450,
      "vers": 7451,
      "occ": 7452,
      "ger ": 7453,
      "soon ": 7454,
      "Mil": 7455,
      "Squ": 7456,
      "six": 7457,
      "Que": 7458,
      "Bur": 7459,
      "aut": 7460,
      "and his ": 7461,
      "western ": 7462,
      "tural ": 7463,
      "inform": 7464,
      "Europe": 7465,
      ") . The ": 7466,
      "irst ": 7467,
      "sour": 7468,
      "ecu": 7469,
      "discover": 7470,
      "aster ": 7471,
      "Dr": 7472,
      "party ": 7473,
      "stage ": 7474,
      "ago ": 7475,
      "battle ": 7476,
      "in an ": 7477,
      "ovi": 7478,
      "enter": 7479,
      "generally ": 7480,
      "Battle ": 7481,
      "club ": 7482,
      "exten": 7483,
      "broad": 7484,
      "employ": 7485,
      "ing \" ": 7486,
      "met ": 7487,
      "70 ": 7488,
      "by a ": 7489,
      "record": 7490,
      "foc": 7491,
      "ap ": 7492,
      " Al": 7493,
      "ge": 7494,
      "help ": 7495,
      "ed in a ": 7496,
      "few ": 7497,
      "Am": 7498,
      "adem": 7499,
      "aid ": 7500,
      "super": 7501,
      "ark ": 7502,
      "conduc": 7503,
      "ained ": 7504,
      "David ": 7505,
      "lege ": 7506,
      "requir": 7507,
      "ped ": 7508,
      "ald ": 7509,
      "ox": 7510,
      "mph ": 7511,
      "sor": 7512,
      "Ab": 7513,
      "captur": 7514,
      "worked ": 7515,
      "expres": 7516,
      "Rich": 7517,
      ". While ": 7518,
      "works ": 7519,
      "ness ": 7520,
      "leng": 7521,
      "ester ": 7522,
      "F ": 7523,
      "assist": 7524,
      "mix": 7525,
      "Mo": 7526,
      "chi": 7527,
      "room ": 7528,
      "shot ": 7529,
      "ed as a ": 7530,
      "public": 7531,
      "\" ( ": 7532,
      "id @-@ ": 7533,
      "open ": 7534,
      " Th": 7535,
      "duce ": 7536,
      "ones ": 7537,
      "intend": 7538,
      "us , ": 7539,
      "ech ": 7540,
      "station ": 7541,
      "t was ": 7542,
      "tors ": 7543,
      "ves ": 7544,
      "K ": 7545,
      "oul": 7546,
      "with his ": 7547,
      "Chin": 7548,
      "evid": 7549,
      "Washington ": 7550,
      "date ": 7551,
      "ur ": 7552,
      "damage ": 7553,
      "ed . \n": 7554,
      "ense ": 7555,
      "started ": 7556,
      "others ": 7557,
      "promo": 7558,
      "ille ": 7559,
      "bat": 7560,
      "deter": 7561,
      "does ": 7562,
      "island ": 7563,
      "my": 7564,
      "gin": 7565,
      "effec": 7566,
      " , but ": 7567,
      "ligh": 7568,
      "wo ": 7569,
      "exampl": 7570,
      "within the ": 7571,
      "abor": 7572,
      "ession": 7573,
      "class": 7574,
      "itte": 7575,
      "tion , ": 7576,
      "r ": 7577,
      "European ": 7578,
      "driv": 7579,
      "ed it ": 7580,
      "prepar": 7581,
      "ts and ": 7582,
      "ky ": 7583,
      "event ": 7584,
      "aff ": 7585,
      "Vic": 7586,
      "Se": 7587,
      "is , ": 7588,
      "mot": 7589,
      "largest ": 7590,
      "Hun": 7591,
      "sure ": 7592,
      "Fil": 7593,
      "at number ": 7594,
      "inspir": 7595,
      "conc": 7596,
      "significant ": 7597,
      "contribu": 7598,
      "highway ": 7599,
      "lands ": 7600,
      "serve ": 7601,
      "\" and \" ": 7602,
      "efor": 7603,
      "vent": 7604,
      "surviv": 7605,
      "remov": 7606,
      "appoin": 7607,
      "age , ": 7608,
      "ment of ": 7609,
      "Tur": 7610,
      "highest ": 7611,
      "rain ": 7612,
      "cycl": 7613,
      "initially ": 7614,
      "erous ": 7615,
      "official ": 7616,
      " In the ": 7617,
      "particularly ": 7618,
      "P ": 7619,
      "active ": 7620,
      "fourth ": 7621,
      "pil": 7622,
      "io ": 7623,
      "2 @.@ ": 7624,
      "Val": 7625,
      "real": 7626,
      "agu": 7627,
      "uni": 7628,
      "ourn": 7629,
      "and , ": 7630,
      "multi": 7631,
      "agg": 7632,
      "Air ": 7633,
      "songs ": 7634,
      "Republ": 7635,
      "Cam": 7636,
      "pot": 7637,
      "any": 7638,
      "to have ": 7639,
      "ators ": 7640,
      "ces ": 7641,
      "rock ": 7642,
      " Wh": 7643,
      "forces ": 7644,
      "Pal": 7645,
      "Hol": 7646,
      "magaz": 7647,
      "Cali": 7648,
      "2013 ": 7649,
      "Compan": 7650,
      "around the ": 7651,
      "priv": 7652,
      "assi": 7653,
      "spor": 7654,
      "to his ": 7655,
      "ched ": 7656,
      "Kingdom ": 7657,
      "Music ": 7658,
      "adron ": 7659,
      "son , ": 7660,
      "University ": 7661,
      "nar": 7662,
      "pic": 7663,
      "women ": 7664,
      "southern ": 7665,
      "ocial ": 7666,
      "iddle ": 7667,
      "We": 7668,
      "tun": 7669,
      "langu": 7670,
      "competi": 7671,
      "nav": 7672,
      "aul ": 7673,
      "won the ": 7674,
      "forn": 7675,
      "le , ": 7676,
      "1st ": 7677,
      "In ": 7678,
      "miles ( ": 7679,
      ". During the ": 7680,
      "relig": 7681,
      "tour ": 7682,
      "found": 7683,
      "character": 7684,
      "illi": 7685,
      "12": 7686,
      "servic": 7687,
      "ment": 7688,
      "lear": 7689,
      "ket ": 7690,
      "special ": 7691,
      "playing ": 7692,
      "Henry ": 7693,
      "meas": 7694,
      "key ": 7695,
      "gram ": 7696,
      "eth": 7697,
      "ed him ": 7698,
      "ression ": 7699,
      "Ale": 7700,
      "acqu": 7701,
      ". With ": 7702,
      ". St": 7703,
      "ers were ": 7704,
      "Mi": 7705,
      "combin": 7706,
      "love ": 7707,
      "2006 ": 7708,
      "reduc": 7709,
      "immedi": 7710,
      "ai": 7711,
      "iss": 7712,
      "Em": 7713,
      "net": 7714,
      "viol": 7715,
      "Jer": 7716,
      "plat": 7717,
      "daugh": 7718,
      "a was ": 7719,
      "ess , ": 7720,
      "writing ": 7721,
      "epend": 7722,
      "centur": 7723,
      "ians ": 7724,
      "s and the ": 7725,
      "Po": 7726,
      "school": 7727,
      "Michael ": 7728,
      "ament ": 7729,
      "Robert ": 7730,
      ". \" The ": 7731,
      "accep": 7732,
      "eting ": 7733,
      "far ": 7734,
      "= = = = \n": 7735,
      "commerc": 7736,
      "particip": 7737,
      "independ": 7738,
      ". I ": 7739,
      "achiev": 7740,
      "oph": 7741,
      "Sou": 7742,
      "north": 7743,
      "usually ": 7744,
      "ask": 7745,
      "northern ": 7746,
      "crew ": 7747,
      "o 's ": 7748,
      "wid": 7749,
      "victory ": 7750,
      "move ": 7751,
      "law ": 7752,
      "De": 7753,
      "phys": 7754,
      "pli": 7755,
      "35 ": 7756,
      "antry ": 7757,
      "who had ": 7758,
      "Californ": 7759,
      "defin": 7760,
      "clu": 7761,
      "umb": 7762,
      "Rev": 7763,
      "amoun": 7764,
      "Mac": 7765,
      "Christ": 7766,
      "end of ": 7767,
      "3 @.@ ": 7768,
      "ers of ": 7769,
      "Charles ": 7770,
      "positive ": 7771,
      "better ": 7772,
      "human ": 7773,
      "must ": 7774,
      "ers to ": 7775,
      "ben": 7776,
      "ull ": 7777,
      "fall ": 7778,
      "\" a ": 7779,
      " N": 7780,
      "vot": 7781,
      "Fre": 7782,
      "appearance ": 7783,
      "ran ": 7784,
      "break": 7785,
      "told ": 7786,
      "Angel": 7787,
      "near": 7788,
      "oppos": 7789,
      "era ": 7790,
      "spent ": 7791,
      "earlier ": 7792,
      "Y ": 7793,
      "75 ": 7794,
      "civ": 7795,
      "guit": 7796,
      ". According to ": 7797,
      "fr": 7798,
      "mid @-@ ": 7799,
      "including the ": 7800,
      "President ": 7801,
      "ole ": 7802,
      "above ": 7803,
      "International ": 7804,
      "activ": 7805,
      "sound ": 7806,
      "tom": 7807,
      "bul": 7808,
      "on his ": 7809,
      "ingly ": 7810,
      "post ": 7811,
      "ells ": 7812,
      "quick": 7813,
      "al @-@ ": 7814,
      "ated by ": 7815,
      "acy ": 7816,
      "ing it ": 7817,
      "ies , ": 7818,
      "hit ": 7819,
      "ists ": 7820,
      "rather than ": 7821,
      "previously ": 7822,
      "accoun": 7823,
      "o and ": 7824,
      "ric ": 7825,
      "gir": 7826,
      "weeks ": 7827,
      "B ": 7828,
      "ts to ": 7829,
      "use of ": 7830,
      "T ": 7831,
      "central ": 7832,
      "till": 7833,
      "ican ": 7834,
      "project ": 7835,
      "find ": 7836,
      " , which ": 7837,
      "Union ": 7838,
      "don ": 7839,
      "Great ": 7840,
      "ek": 7841,
      "sts ": 7842,
      "estig": 7843,
      "unc": 7844,
      "all the ": 7845,
      "alion ": 7846,
      "proper": 7847,
      "sea ": 7848,
      "happ": 7849,
      "reas": 7850,
      "scene ": 7851,
      "omet": 7852,
      "recorded ": 7853,
      "rison ": 7854,
      "urb": 7855,
      "stra": 7856,
      "reng": 7857,
      "rail": 7858,
      "First ": 7859,
      "syn": 7860,
      "bomb": 7861,
      "range ": 7862,
      "portra": 7863,
      "months ": 7864,
      "fed": 7865,
      "188": 7866,
      "No. ": 7867,
      "mean": 7868,
      "High": 7869,
      "command ": 7870,
      "Bel": 7871,
      "part": 7872,
      "Sw": 7873,
      "in , ": 7874,
      "domin": 7875,
      "where the ": 7876,
      "Jack": 7877,
      "began to ": 7878,
      "itself ": 7879,
      "interest ": 7880,
      "186": 7881,
      "season , ": 7882,
      "U.S. ": 7883,
      "Brit": 7884,
      "teen ": 7885,
      "al and ": 7886,
      "Kor": 7887,
      "ata ": 7888,
      "ox ": 7889,
      "enough ": 7890,
      "office ": 7891,
      "er of the ": 7892,
      "cou": 7893,
      "America ": 7894,
      "soldi": 7895,
      "full ": 7896,
      "Flor": 7897,
      "known as ": 7898,
      "e , a ": 7899,
      "ed an ": 7900,
      "standing ": 7901,
      "trac": 7902,
      "give ": 7903,
      "hurricane ": 7904,
      "entire ": 7905,
      "cal": 7906,
      "charg": 7907,
      "ee ": 7908,
      "£ ": 7909,
      "ques": 7910,
      "returned to ": 7911,
      "31 ": 7912,
      "so": 7913,
      "don": 7914,
      "relationship ": 7915,
      "ellow ": 7916,
      "Mat": 7917,
      "0s , ": 7918,
      "ativ": 7919,
      "theast ": 7920,
      "opening ": 7921,
      "tou": 7922,
      "term ": 7923,
      "ier ": 7924,
      "reli": 7925,
      "co @-@ ": 7926,
      "n , ": 7927,
      "streng": 7928,
      "th of ": 7929,
      "und": 7930,
      "is not ": 7931,
      "plic": 7932,
      "star ": 7933,
      "berg ": 7934,
      "ix ": 7935,
      "Thomas ": 7936,
      "eed": 7937,
      "director ": 7938,
      "available ": 7939,
      "whose ": 7940,
      "author": 7941,
      "case ": 7942,
      "Res": 7943,
      "success ": 7944,
      "units ": 7945,
      "hop": 7946,
      "hos": 7947,
      "occup": 7948,
      "nine ": 7949,
      " , a ": 7950,
      "league ": 7951,
      "along with ": 7952,
      "studio ": 7953,
      "Met": 7954,
      "isc": 7955,
      "commis": 7956,
      "onic ": 7957,
      "could be ": 7958,
      "ff ": 7959,
      "sex": 7960,
      "turned ": 7961,
      "Ros": 7962,
      "recording ": 7963,
      "drew ": 7964,
      "Sha": 7965,
      "eum ": 7966,
      "techn": 7967,
      "stitu": 7968,
      "may be ": 7969,
      "’ s ": 7970,
      "execu": 7971,
      "Cup ": 7972,
      "jud": 7973,
      "argu": 7974,
      "rup": 7975,
      "alli": 7976,
      "Play": 7977,
      "Med": 7978,
      "sus": 7979,
      "beginning ": 7980,
      "declar": 7981,
      "whom ": 7982,
      "additional ": 7983,
      "lower ": 7984,
      "90 ": 7985,
      "control": 7986,
      "ots ": 7987,
      "moved ": 7988,
      "eds ": 7989,
      "engin": 7990,
      "row ": 7991,
      "corpor": 7992,
      "iment ": 7993,
      "ership ": 7994,
      "progr": 7995,
      "s ( ": 7996,
      "population ": 7997,
      "45 ": 7998,
      "car ": 7999,
      "brother ": 8000,
      "Associ": 8001,
      "lack ": 8002,
      "iting ": 8003,
      "person ": 8004,
      "quickly ": 8005,
      "Island ": 8006,
      "Bra": 8007,
      "dri": 8008,
      "a new ": 8009,
      "church ": 8010,
      "series of ": 8011,
      "allow ": 8012,
      "Air": 8013,
      "2014 ": 8014,
      "Indian ": 8015,
      "amb": 8016,
      "Isl": 8017,
      "already ": 8018,
      "France ": 8019,
      "in L": 8020,
      "army ": 8021,
      "Ag": 8022,
      "reached ": 8023,
      "international ": 8024,
      "excep": 8025,
      "at least ": 8026,
      "Jos": 8027,
      "coast ": 8028,
      "Japan ": 8029,
      "via ": 8030,
      "Govern": 8031,
      "set": 8032,
      "is an ": 8033,
      "ruis": 8034,
      "free ": 8035,
      "s from ": 8036,
      "ated to ": 8037,
      "flo": 8038,
      "mb": 8039,
      "likely ": 8040,
      "goal ": 8041,
      "in their ": 8042,
      "Ber": 8043,
      " K": 8044,
      "idea ": 8045,
      "remained ": 8046,
      "enth ": 8047,
      "espec": 8048,
      "als , ": 8049,
      "Sen": 8050,
      "recogn": 8051,
      "School ": 8052,
      "decision ": 8053,
      "ag ": 8054,
      "year , ": 8055,
      "polic": 8056,
      ". One ": 8057,
      "sia ": 8058,
      "situ": 8059,
      "van": 8060,
      "Virgin": 8061,
      "Award ": 8062,
      "build": 8063,
      "Tri": 8064,
      "election ": 8065,
      "anal": 8066,
      "later , ": 8067,
      "until the ": 8068,
      "Cha": 8069,
      "antly ": 8070,
      "The": 8071,
      "in @-@ ": 8072,
      "especially ": 8073,
      "bit ": 8074,
      "frequ": 8075,
      "leading ": 8076,
      "across the ": 8077,
      "secur": 8078,
      "debut ": 8079,
      "is also ": 8080,
      "ith": 8081,
      "Western ": 8082,
      "Ter": 8083,
      "2 – ": 8084,
      "money ": 8085,
      "award": 8086,
      "Moun": 8087,
      "two @-@ ": 8088,
      "pped ": 8089,
      "ai ": 8090,
      "yard ": 8091,
      "enem": 8092,
      "or of ": 8093,
      "program ": 8094,
      "red to ": 8095,
      "tically ": 8096,
      "stly ": 8097,
      "throughout the ": 8098,
      "edy ": 8099,
      "\" S": 8100,
      "Pac": 8101,
      "test": 8102,
      ". Desp": 8103,
      "2005 ": 8104,
      "hold ": 8105,
      "continued to ": 8106,
      "rate ": 8107,
      "Ver": 8108,
      "Dan": 8109,
      "Chic": 8110,
      "social ": 8111,
      "edly ": 8112,
      "ances ": 8113,
      "ateg": 8114,
      "in its ": 8115,
      "kil": 8116,
      "ference ": 8117,
      "Sovi": 8118,
      "read ": 8119,
      "porary ": 8120,
      "ials ": 8121,
      "ence , ": 8122,
      "approxim": 8123,
      "II": 8124,
      "ect": 8125,
      "states ": 8126,
      "antas": 8127,
      "in 198": 8128,
      "Route ": 8129,
      "ching ": 8130,
      "where he ": 8131,
      "order to ": 8132,
      "ised ": 8133,
      "Hor": 8134,
      "arrang": 8135,
      "adap": 8136,
      "investig": 8137,
      "appointed ": 8138,
      "Pe": 8139,
      "flic": 8140,
      "on to ": 8141,
      "mary ": 8142,
      "percent ": 8143,
      "based on ": 8144,
      "sometimes ": 8145,
      "latter ": 8146,
      "might ": 8147,
      "int ": 8148,
      "daughter ": 8149,
      "exper": 8150,
      "eastern ": 8151,
      "ument": 8152,
      "with an ": 8153,
      "word ": 8154,
      "a @-@ ": 8155,
      "events ": 8156,
      ". U": 8157,
      "old": 8158,
      "cover ": 8159,
      "a few ": 8160,
      "Bal": 8161,
      "Dem": 8162,
      "e ( ": 8163,
      "oday ": 8164,
      "olution ": 8165,
      "turn ": 8166,
      "discus": 8167,
      "training ": 8168,
      "that it ": 8169,
      "average ": 8170,
      "tan": 8171,
      "aper ": 8172,
      "musical ": 8173,
      "section ": 8174,
      "son 's ": 8175,
      "Chi": 8176,
      "phot": 8177,
      "Mag": 8178,
      "ster ": 8179,
      "owever , the ": 8180,
      "reti": 8181,
      "Du": 8182,
      "e was ": 8183,
      "than the ": 8184,
      "fleet ": 8185,
      "Bu": 8186,
      "heal": 8187,
      "all of ": 8188,
      "decided to ": 8189,
      "istic ": 8190,
      "viron": 8191,
      "feet ( ": 8192,
      "i @-@ ": 8193,
      "settl": 8194,
      "let ": 8195,
      "princ": 8196,
      "ball": 8197,
      "lyric": 8198,
      "friend ": 8199,
      "called the ": 8200,
      "finish": 8201,
      "Ham": 8202,
      "You ": 8203,
      "upon ": 8204,
      "isl": 8205,
      "Span": 8206,
      "staff ": 8207,
      "lymp": 8208,
      "dom": 8209,
      "base ": 8210,
      "Club": 8211,
      "rat": 8212,
      "aries ": 8213,
      "became the ": 8214,
      "ident ": 8215,
      "ention ": 8216,
      "Cong": 8217,
      "stone ": 8218,
      "condi": 8219,
      "future ": 8220,
      "territ": 8221,
      "Star ": 8222,
      ". Some ": 8223,
      "profession": 8224,
      "eth ": 8225,
      "plan ": 8226,
      "small": 8227,
      "Navy ": 8228,
      "in M": 8229,
      "mi ) ": 8230,
      "reveal": 8231,
      ". To ": 8232,
      "of L": 8233,
      "ings , ": 8234,
      "ic , ": 8235,
      "in the United States ": 8236,
      "liz": 8237,
      "occas": 8238,
      "escap": 8239,
      "y the ": 8240,
      "University of ": 8241,
      "liter": 8242,
      "near the ": 8243,
      "after": 8244,
      "mas": 8245,
      "break ": 8246,
      "regular ": 8247,
      ". Un": 8248,
      "appear ": 8249,
      "ys ": 8250,
      "oot ": 8251,
      "ix": 8252,
      "became a ": 8253,
      "certain ": 8254,
      "Sal": 8255,
      "Force ": 8256,
      "improv": 8257,
      "avo": 8258,
      "purch": 8259,
      "current ": 8260,
      "past ": 8261,
      "conf": 8262,
      "need": 8263,
      "writer ": 8264,
      "lay": 8265,
      "great": 8266,
      "nearly ": 8267,
      "Cro": 8268,
      "I '": 8269,
      "wal": 8270,
      "sem": 8271,
      "ed . The ": 8272,
      "estiv": 8273,
      "tions , ": 8274,
      "Counc": 8275,
      "2nd ": 8276,
      "financ": 8277,
      "within ": 8278,
      " G": 8279,
      "Tex": 8280,
      "interest": 8281,
      "He": 8282,
      " E": 8283,
      "football ": 8284,
      "ude ": 8285,
      "movement ": 8286,
      "surr": 8287,
      "remaining ": 8288,
      "Olymp": 8289,
      "ed with the ": 8290,
      "they are ": 8291,
      "jects ": 8292,
      "Off": 8293,
      "ken ": 8294,
      "does not ": 8295,
      "construction ": 8296,
      "cost ": 8297,
      "level": 8298,
      "California ": 8299,
      "added ": 8300,
      "police ": 8301,
      "ed , and ": 8302,
      "Paul ": 8303,
      "3 – ": 8304,
      "division ": 8305,
      "food ": 8306,
      "ars ": 8307,
      "did": 8308,
      "atively ": 8309,
      "was released ": 8310,
      "Smi": 8311,
      "estimated ": 8312,
      "as , ": 8313,
      "Atlan": 8314,
      "un ": 8315,
      "taking ": 8316,
      "would have ": 8317,
      "mad": 8318,
      "ories ": 8319,
      ". V": 8320,
      "anti @-@ ": 8321,
      "week": 8322,
      "burg ": 8323,
      "prog": 8324,
      "ft ) ": 8325,
      "mur": 8326,
      "court ": 8327,
      "list ": 8328,
      "when he ": 8329,
      "now": 8330,
      "probl": 8331,
      "4 @.@ ": 8332,
      "TV ": 8333,
      "2015 ": 8334,
      "wit": 8335,
      "desp": 8336,
      "kin": 8337,
      "dig": 8338,
      "M ": 8339,
      "enj": 8340,
      "possib": 8341,
      "rad": 8342,
      "tures ": 8343,
      "known as the ": 8344,
      "ted in ": 8345,
      "rated ": 8346,
      "returned ": 8347,
      "child ": 8348,
      "strict ": 8349,
      "spea": 8350,
      "ders ": 8351,
      "an and ": 8352,
      "sons ": 8353,
      "conclud": 8354,
      "eign ": 8355,
      "running ": 8356,
      "Black ": 8357,
      "forward ": 8358,
      "larger ": 8359,
      "approximately ": 8360,
      "Germany ": 8361,
      "illboard ": 8362,
      "Cal": 8363,
      "that was ": 8364,
      "president ": 8365,
      "administ": 8366,
      "themsel": 8367,
      "ed from the ": 8368,
      "tionally ": 8369,
      "San ": 8370,
      "ations , ": 8371,
      "a . \n": 8372,
      "er to ": 8373,
      "mostly ": 8374,
      "bert ": 8375,
      "structure ": 8376,
      "it , ": 8377,
      "func": 8378,
      "Enter": 8379,
      "187": 8380,
      "on September ": 8381,
      "Chinese ": 8382,
      "meth": 8383,
      ". An ": 8384,
      "chart ": 8385,
      " = = = \n": 8386,
      "ed at the ": 8387,
      "colon": 8388,
      "mal": 8389,
      "not be ": 8390,
      "Pat": 8391,
      "runs ": 8392,
      "chall": 8393,
      "ess of ": 8394,
      "sport ": 8395,
      "Virginia ": 8396,
      "1 – ": 8397,
      "oth ": 8398,
      "weap": 8399,
      "Lou": 8400,
      "astern ": 8401,
      "every": 8402,
      ". After the ": 8403,
      "effects ": 8404,
      "probably ": 8405,
      "ped": 8406,
      "mach": 8407,
      "ual": 8408,
      "emerg": 8409,
      "Richard ": 8410,
      "whether ": 8411,
      "NY ": 8412,
      "or to ": 8413,
      "higher ": 8414,
      "Ap": 8415,
      "depic": 8416,
      "collec": 8417,
      "vice ": 8418,
      "eu": 8419,
      "surface ": 8420,
      "Dis": 8421,
      ", as ": 8422,
      "ar , ": 8423,
      "III ": 8424,
      "increased ": 8425,
      "ean": 8426,
      "community ": 8427,
      "Church ": 8428,
      "complete ": 8429,
      "cle ": 8430,
      ". On the ": 8431,
      "distri": 8432,
      "fall": 8433,
      "distribu": 8434,
      "2004 ": 8435,
      "continued ": 8436,
      "Recor": 8437,
      "Gra": 8438,
      "commercial ": 8439,
      "provide ": 8440,
      "Championship ": 8441,
      "treat": 8442,
      "Soviet ": 8443,
      "magazine ": 8444,
      "living ": 8445,
      "é ": 8446,
      "tions of ": 8447,
      "expected ": 8448,
      "real ": 8449,
      "ordin": 8450,
      "personal ": 8451,
      "asked ": 8452,
      "ma ": 8453,
      "enty ": 8454,
      "ening ": 8455,
      "road": 8456,
      "countri": 8457,
      "bran": 8458,
      "thus ": 8459,
      "done ": 8460,
      "ail ": 8461,
      "cut ": 8462,
      "300 ": 8463,
      "High ": 8464,
      "parts ": 8465,
      "extr": 8466,
      "in 196": 8467,
      ". The first ": 8468,
      "RA": 8469,
      "temper": 8470,
      "ease ": 8471,
      "immediately ": 8472,
      ". Other ": 8473,
      "month ": 8474,
      "firm": 8475,
      "off the ": 8476,
      "an un": 8477,
      " Dur": 8478,
      "I @-@ ": 8479,
      "White ": 8480,
      "gold ": 8481,
      "overall ": 8482,
      "ob ": 8483,
      "top": 8484,
      "power": 8485,
      "lin ": 8486,
      "chor": 8487,
      "yr": 8488,
      "of H": 8489,
      "really ": 8490,
      "such as the ": 8491,
      "female ": 8492,
      "injur": 8493,
      "novel ": 8494,
      "fol": 8495,
      "leave ": 8496,
      "bow": 8497,
      "House ": 8498,
      ". Con": 8499,
      "ument ": 8500,
      "celeb": 8501,
      "Alli": 8502,
      "subsequently ": 8503,
      "Tor": 8504,
      "ym": 8505,
      "longer ": 8506,
      "Victor": 8507,
      "energ": 8508,
      "Party ": 8509,
      "Des": 8510,
      "Gi": 8511,
      "nother ": 8512,
      "who was ": 8513,
      "tu": 8514,
      "side the ": 8515,
      "2 @,@ ": 8516,
      "ta ": 8517,
      "s \" ": 8518,
      "elected ": 8519,
      "itch": 8520,
      "material ": 8521,
      "ville ": 8522,
      "contract ": 8523,
      "Lu": 8524,
      "atory ": 8525,
      "lines ": 8526,
      "jected ": 8527,
      "ehic": 8528,
      "ed her ": 8529,
      "sey ": 8530,
      "instr": 8531,
      "Ca": 8532,
      "response ": 8533,
      "copies ": 8534,
      "explain": 8535,
      "Ir": 8536,
      "venue ": 8537,
      "canc": 8538,
      "always ": 8539,
      "ld": 8540,
      "err": 8541,
      "process ": 8542,
      "ico ": 8543,
      "box ": 8544,
      "business ": 8545,
      "due to the ": 8546,
      "mun": 8547,
      "m , ": 8548,
      "Edward ": 8549,
      "review ": 8550,
      "sun": 8551,
      "summer ": 8552,
      "day , ": 8553,
      "host": 8554,
      "mos": 8555,
      "Florid": 8556,
      "among the ": 8557,
      "e to ": 8558,
      "Christian ": 8559,
      "dy ": 8560,
      "Fi": 8561,
      "Leg": 8562,
      "Grand ": 8563,
      "tainment ": 8564,
      "ed to a ": 8565,
      "defeated ": 8566,
      "cred": 8567,
      "concep": 8568,
      "univers": 8569,
      "Tra": 8570,
      "ush ": 8571,
      "Canadian ": 8572,
      "Gam": 8573,
      "Port": 8574,
      "ography ": 8575,
      "clear ": 8576,
      "'s first ": 8577,
      "maintain": 8578,
      ". \" H": 8579,
      "critics ": 8580,
      "hand ": 8581,
      "adop": 8582,
      "advanc": 8583,
      "ultim": 8584,
      "habit": 8585,
      "written by ": 8586,
      "ounding ": 8587,
      "ban": 8588,
      "Day ": 8589,
      "Oper": 8590,
      "ton": 8591,
      "despite ": 8592,
      ". He also ": 8593,
      "natural ": 8594,
      "asp": 8595,
      "abil": 8596,
      "approach": 8597,
      "Brig": 8598,
      "ate , ": 8599,
      "published ": 8600,
      "emo": 8601,
      "or the ": 8602,
      "Emp": 8603,
      "Spanish ": 8604,
      "front ": 8605,
      "legal ": 8606,
      "flight ": 8607,
      "e of a ": 8608,
      "got ": 8609,
      "Chicago ": 8610,
      "ional ": 8611,
      "Bay ": 8612,
      "in 197": 8613,
      "prison": 8614,
      "bil": 8615,
      "Roman ": 8616,
      "Tran": 8617,
      "south": 8618,
      "Im": 8619,
      "inch": 8620,
      "c ": 8621,
      "Pacific ": 8622,
      "game 's ": 8623,
      "research ": 8624,
      "have a ": 8625,
      ". On": 8626,
      "him to ": 8627,
      "Red ": 8628,
      "finished ": 8629,
      "environ": 8630,
      "Grou": 8631,
      "classi": 8632,
      "ucle": 8633,
      "Company ": 8634,
      "Sing": 8635,
      "onds ": 8636,
      "ster": 8637,
      "parti": 8638,
      "Times ": 8639,
      "thy ": 8640,
      "initial ": 8641,
      "ump": 8642,
      "self @-@ ": 8643,
      "37 ": 8644,
      "e \" ": 8645,
      "respectively ": 8646,
      "NA ": 8647,
      "dru": 8648,
      ". Follow": 8649,
      "Second ": 8650,
      "yet ": 8651,
      "that they ": 8652,
      "Georg": 8653,
      "conven": 8654,
      "lov": 8655,
      ". As a ": 8656,
      "altern": 8657,
      "associated ": 8658,
      "get": 8659,
      "Maj": 8660,
      "engag": 8661,
      "Jew": 8662,
      "necess": 8663,
      "deb": 8664,
      "media ": 8665,
      "fifth ": 8666,
      "ward": 8667,
      "space ": 8668,
      "er @-@ ": 8669,
      "evidence ": 8670,
      "adul": 8671,
      "private ": 8672,
      "ans , ": 8673,
      "os Angel": 8674,
      "according to ": 8675,
      "aily ": 8676,
      "saf": 8677,
      "termin": 8678,
      "adium ": 8679,
      "produced ": 8680,
      "scienti": 8681,
      "strong": 8682,
      "favor": 8683,
      "regard": 8684,
      "es \" ": 8685,
      "Studi": 8686,
      "lav": 8687,
      "thes": 8688,
      "ner": 8689,
      "United Kingdom ": 8690,
      "vehic": 8691,
      "distinc": 8692,
      "shown ": 8693,
      "fell ": 8694,
      "theat": 8695,
      "ty , ": 8696,
      ". In addition ": 8697,
      "was the first ": 8698,
      "hard ": 8699,
      "e of the ": 8700,
      "press ": 8701,
      "ient ": 8702,
      "test ": 8703,
      "e , \" ": 8704,
      "mel": 8705,
      "Mill": 8706,
      "ears ": 8707,
      "ator": 8708,
      "32 ": 8709,
      "numerous ": 8710,
      "er was ": 8711,
      "ath ": 8712,
      "Russian ": 8713,
      "ial": 8714,
      ". During ": 8715,
      "create ": 8716,
      "norm": 8717,
      "arg": 8718,
      "actions ": 8719,
      "weight ": 8720,
      "radio ": 8721,
      "land , ": 8722,
      "rick ": 8723,
      ": The ": 8724,
      "premi": 8725,
      "developed ": 8726,
      "an inter": 8727,
      "three @-@ ": 8728,
      "prev": 8729,
      "promis": 8730,
      "Tre": 8731,
      "archit": 8732,
      "students ": 8733,
      "sim": 8734,
      "pun": 8735,
      "clim": 8736,
      "tons ": 8737,
      "on 's ": 8738,
      "most of the ": 8739,
      "citi": 8740,
      "on and ": 8741,
      "aught ": 8742,
      "ates , ": 8743,
      "Del": 8744,
      "Atlantic ": 8745,
      "Pi": 8746,
      "selected ": 8747,
      "fact ": 8748,
      "rab": 8749,
      "limited ": 8750,
      "of which ": 8751,
      "Ot": 8752,
      "finally ": 8753,
      "German": 8754,
      "imag": 8755,
      "All": 8756,
      "Council ": 8757,
      "said that ": 8758,
      "Alex": 8759,
      "Billboard ": 8760,
      "since the ": 8761,
      "igan ": 8762,
      "desig": 8763,
      "sen ": 8764,
      "ation was ": 8765,
      ". An": 8766,
      "acting ": 8767,
      "seas": 8768,
      "broadcast ": 8769,
      "lack of ": 8770,
      ". From ": 8771,
      "side of the ": 8772,
      "nation": 8773,
      "enant ": 8774,
      "36 ": 8775,
      "inten": 8776,
      "going ": 8777,
      "woman ": 8778,
      "upper ": 8779,
      "but the ": 8780,
      "One ": 8781,
      "ull": 8782,
      "God ": 8783,
      "of its ": 8784,
      ". Her ": 8785,
      "there were ": 8786,
      "4 – ": 8787,
      "largely ": 8788,
      "It ": 8789,
      "professional ": 8790,
      "Central ": 8791,
      ". She was ": 8792,
      "bodi": 8793,
      "nel ": 8794,
      ". In 200": 8795,
      ". Its ": 8796,
      "ine , ": 8797,
      "Soci": 8798,
      "Wat": 8799,
      "ating the ": 8800,
      "es from ": 8801,
      "mom": 8802,
      "back to ": 8803,
      "Minist": 8804,
      "ray ": 8805,
      "Mex": 8806,
      "conflic": 8807,
      "influence ": 8808,
      "critical ": 8809,
      "- ": 8810,
      "osaur": 8811,
      "wind ": 8812,
      "Sci": 8813,
      "ry": 8814,
      "ept ": 8815,
      "plans ": 8816,
      "conver": 8817,
      "hip ": 8818,
      "aint ": 8819,
      "sched": 8820,
      "elements ": 8821,
      "zz": 8822,
      "wanted to ": 8823,
      "al of ": 8824,
      ". Two ": 8825,
      "Mer": 8826,
      "produce ": 8827,
      "crow": 8828,
      "influenc": 8829,
      "eding ": 8830,
      "something ": 8831,
      "Kar": 8832,
      "say ": 8833,
      "ress": 8834,
      "DV": 8835,
      "tion and ": 8836,
      "keep": 8837,
      "e of his ": 8838,
      "purpos": 8839,
      "rating ": 8840,
      "es for ": 8841,
      "ers ' ": 8842,
      "established ": 8843,
      "directly ": 8844,
      "keep ": 8845,
      "arm ": 8846,
      "ance of ": 8847,
      "cli": 8848,
      "wall ": 8849,
      "ret ": 8850,
      "Europe ": 8851,
      "bot": 8852,
      "coming ": 8853,
      "asc": 8854,
      "spl": 8855,
      "edic": 8856,
      "experience ": 8857,
      "a , and ": 8858,
      "know": 8859,
      "claim ": 8860,
      "newsp": 8861,
      "efore ": 8862,
      "oti": 8863,
      "ed out ": 8864,
      "famil": 8865,
      "primary ": 8866,
      "aband": 8867,
      "ting the ": 8868,
      "members of the ": 8869,
      "rout": 8870,
      "total of ": 8871,
      "Carol": 8872,
      "History ": 8873,
      "Eg": 8874,
      "Britain ": 8875,
      "album , ": 8876,
      "fight ": 8877,
      "member of the ": 8878,
      "gradu": 8879,
      "Inf": 8880,
      "Highway ": 8881,
      "river ": 8882,
      "Ev": 8883,
      "ible ": 8884,
      "was \" ": 8885,
      "contem": 8886,
      "s on ": 8887,
      "rd ": 8888,
      "approv": 8889,
      "ights ": 8890,
      "Station ": 8891,
      "groups ": 8892,
      "Ke": 8893,
      "Martin ": 8894,
      "language ": 8895,
      "ted a ": 8896,
      "sound": 8897,
      "yards ": 8898,
      "agon": 8899,
      "depression ": 8900,
      "der of the ": 8901,
      "ket": 8902,
      "it 's ": 8903,
      "operations ": 8904,
      "lie ": 8905,
      "a S": 8906,
      "ae ": 8907,
      "siz": 8908,
      "cross": 8909,
      "wa": 8910,
      "Peter ": 8911,
      "individual ": 8912,
      "eut": 8913,
      "was re": 8914,
      "films ": 8915,
      "mental ": 8916,
      "scored ": 8917,
      "2000 ": 8918,
      ". Despite ": 8919,
      "mm ) ": 8920,
      "wall": 8921,
      "and B": 8922,
      "edit": 8923,
      "pre @-@ ": 8924,
      "memor": 8925,
      "caused ": 8926,
      "winning ": 8927,
      "s , including ": 8928,
      "33 ": 8929,
      "ers ( ": 8930,
      "released in ": 8931,
      "Man ": 8932,
      ") , the ": 8933,
      "following the ": 8934,
      "organis": 8935,
      "traditional ": 8936,
      "ano ": 8937,
      "55 ": 8938,
      "actor ": 8939,
      "Stor": 8940,
      "phas": 8941,
      "park ": 8942,
      "point": 8943,
      "oods ": 8944,
      "din": 8945,
      "Phil": 8946,
      "session ": 8947,
      "thir": 8948,
      "Clar": 8949,
      "Gar": 8950,
      "Italian ": 8951,
      "38 ": 8952,
      "one @-@ ": 8953,
      "ened ": 8954,
      "to make ": 8955,
      "poor ": 8956,
      "ranked ": 8957,
      "Lord ": 8958,
      "confirm": 8959,
      "Dar": 8960,
      "promin": 8961,
      "market ": 8962,
      "Cast": 8963,
      "Game ": 8964,
      "bury ": 8965,
      "verse ": 8966,
      "feature ": 8967,
      "Cros": 8968,
      "score ": 8969,
      "mig": 8970,
      "day": 8971,
      "detail": 8972,
      "hood ": 8973,
      "plot ": 8974,
      "ingu": 8975,
      "wife ": 8976,
      "Zeal": 8977,
      "wind": 8978,
      "artist ": 8979,
      "bal": 8980,
      "FA ": 8981,
      "fiel": 8982,
      "k of ": 8983,
      "everal ": 8984,
      "attend": 8985,
      "syst": 8986,
      "Mur": 8987,
      "Arch": 8988,
      "double ": 8989,
      "uck": 8990,
      "ittee ": 8991,
      "uses ": 8992,
      "kilomet": 8993,
      "standard ": 8994,
      "Rh": 8995,
      "explo": 8996,
      "syl": 8997,
      "Pen": 8998,
      "ica ": 8999,
      "valu": 9000,
      "direct ": 9001,
      "think ": 9002,
      "qual": 9003,
      "traff": 9004,
      "ell , ": 9005,
      "Fri": 9006,
      "was an ": 9007,
      "ety of ": 9008,
      "numb": 9009,
      "s for ": 9010,
      "th @-@ ": 9011,
      "On": 9012,
      "Democ": 9013,
      "3rd ": 9014,
      "bour": 9015,
      "for the first ": 9016,
      "Cath": 9017,
      "study ": 9018,
      "transfer": 9019,
      "'s \" ": 9020,
      "echan": 9021,
      "pressure ": 9022,
      "tru": 9023,
      "en and ": 9024,
      "determin": 9025,
      "of The ": 9026,
      "below ": 9027,
      "voice ": 9028,
      "hour ": 9029,
      "on October ": 9030,
      "New Zeal": 9031,
      "ady ": 9032,
      "ashi": 9033,
      "Mark ": 9034,
      "ander ": 9035,
      "stand ": 9036,
      "ena ": 9037,
      "sail": 9038,
      "Mich": 9039,
      "minor ": 9040,
      "well @-@ ": 9041,
      "Awards ": 9042,
      "ers of the ": 9043,
      "highly ": 9044,
      "ation for ": 9045,
      "know ": 9046,
      "unity ": 9047,
      "2010 , ": 9048,
      "related ": 9049,
      "Johnson ": 9050,
      "troops ": 9051,
      "years , ": 9052,
      "nearby ": 9053,
      "accompan": 9054,
      "impres": 9055,
      "one , ": 9056,
      "er ( ": 9057,
      "as it ": 9058,
      "incorpor": 9059,
      "tivi": 9060,
      "Rail": 9061,
      "unable to ": 9062,
      "up the ": 9063,
      "fighting ": 9064,
      "commission": 9065,
      "uck ": 9066,
      "annual ": 9067,
      "on August ": 9068,
      "sh ": 9069,
      "expan": 9070,
      "49 ": 9071,
      "positions ": 9072,
      "at the time ": 9073,
      "Cri": 9074,
      "look ": 9075,
      "ollow ": 9076,
      "letter ": 9077,
      "G ": 9078,
      "30": 9079,
      ", in ": 9080,
      "2003 ": 9081,
      "stitution ": 9082,
      "castle ": 9083,
      "middle ": 9084,
      "pop ": 9085,
      "pass ": 9086,
      "cruis": 9087,
      "48 ": 9088,
      "ino ": 9089,
      "intell": 9090,
      "neigh": 9091,
      "depar": 9092,
      "Canada ": 9093,
      "Mis": 9094,
      "Stev": 9095,
      "install": 9096,
      "of \" ": 9097,
      "deliver": 9098,
      "Arm": 9099,
      "Texas ": 9100,
      "journ": 9101,
      "@-@ up ": 9102,
      "refl": 9103,
      "minute ": 9104,
      "extrem": 9105,
      "recep": 9106,
      "epart": 9107,
      "° ": 9108,
      "gi": 9109,
      "pal": 9110,
      "th centur": 9111,
      "weal": 9112,
      "fans ": 9113,
      "ation . \n": 9114,
      "placed ": 9115,
      "killed ": 9116,
      "Phili": 9117,
      "smaller ": 9118,
      "olic ": 9119,
      "eter": 9120,
      "Hom": 9121,
      "effect ": 9122,
      "yz": 9123,
      "47 ": 9124,
      "formed ": 9125,
      "defeat ": 9126,
      "eway ": 9127,
      "maxim": 9128,
      "will be ": 9129,
      "in and ": 9130,
      "attempt to ": 9131,
      "iel": 9132,
      "group": 9133,
      "Mr": 9134,
      "had to ": 9135,
      "build ": 9136,
      "Lake ": 9137,
      "Hal": 9138,
      "nucle": 9139,
      "ez": 9140,
      "his first ": 9141,
      "try": 9142,
      "in this ": 9143,
      "out of the ": 9144,
      "of T": 9145,
      "mid": 9146,
      "Squadron ": 9147,
      "\" , \" ": 9148,
      "twenty ": 9149,
      "Go": 9150,
      ". However , the ": 9151,
      "Chris ": 9152,
      "hospit": 9153,
      "that she ": 9154,
      "opin": 9155,
      "threat": 9156,
      "oil ": 9157,
      "experienc": 9158,
      "Hill ": 9159,
      "2011 , ": 9160,
      "dance ": 9161,
      "i 's ": 9162,
      "asion ": 9163,
      "ids ": 9164,
      "was to ": 9165,
      "responsible ": 9166,
      "resulting ": 9167,
      "legisl": 9168,
      "web": 9169,
      "eutenant ": 9170,
      "stating ": 9171,
      "shoo": 9172,
      "ty": 9173,
      "Bow": 9174,
      "Sea ": 9175,
      "information ": 9176,
      "Fle": 9177,
      "inch ": 9178,
      "Big ": 9179,
      "some of the ": 9180,
      "rest of the ": 9181,
      "College ": 9182,
      "Court ": 9183,
      "access ": 9184,
      "religious ": 9185,
      "Er": 9186,
      "fru": 9187,
      "chester ": 9188,
      "it the ": 9189,
      "antasy ": 9190,
      "hou": 9191,
      "with her ": 9192,
      "in 195": 9193,
      "ations of ": 9194,
      "Pan": 9195,
      "liament ": 9196,
      "2 ) ": 9197,
      "ize ": 9198,
      "pursu": 9199,
      "Bas": 9200,
      "cust": 9201,
      "across ": 9202,
      "wil": 9203,
      "schol": 9204,
      "friends ": 9205,
      "embl": 9206,
      ". The": 9207,
      "separate ": 9208,
      "cerem": 9209,
      "Love ": 9210,
      "retary ": 9211,
      "Jack ": 9212,
      "whole ": 9213,
      "ette ": 9214,
      "demon": 9215,
      "hu": 9216,
      "6 @.@ ": 9217,
      "from his ": 9218,
      "chem": 9219,
      "rights ": 9220,
      "39 ": 9221,
      "net ": 9222,
      "Ru": 9223,
      "repe": 9224,
      "appe": 9225,
      "teams ": 9226,
      "for its ": 9227,
      "trade ": 9228,
      "winds ": 9229,
      "eigh": 9230,
      "Sk": 9231,
      "ant to ": 9232,
      "low": 9233,
      ". Both ": 9234,
      "ance , ": 9235,
      "Don": 9236,
      "Mary ": 9237,
      "Hot ": 9238,
      "paid ": 9239,
      "ograp": 9240,
      "ed as the ": 9241,
      "pair ": 9242,
      "their own ": 9243,
      "year @-@ ": 9244,
      "morning ": 9245,
      "see": 9246,
      "producer ": 9247,
      "itz": 9248,
      "economic ": 9249,
      "ipl": 9250,
      "400 ": 9251,
      "da ": 9252,
      "Academ": 9253,
      "lem ": 9254,
      "Early ": 9255,
      "titled ": 9256,
      "185": 9257,
      "Hous": 9258,
      "shire ": 9259,
      "; and ": 9260,
      "mem": 9261,
      "Final ": 9262,
      "primar": 9263,
      "Depart": 9264,
      "dead ": 9265,
      "pay ": 9266,
      "s , a ": 9267,
      "vely ": 9268,
      "game , ": 9269,
      "for \" ": 9270,
      "India ": 9271,
      "compet": 9272,
      "led by ": 9273,
      "Team ": 9274,
      "prop": 9275,
      "impro": 9276,
      "atin ": 9277,
      "male ": 9278,
      "& ": 9279,
      "depend": 9280,
      "Queen ": 9281,
      "African ": 9282,
      "respond": 9283,
      "hav": 9284,
      "ed for the ": 9285,
      "referred to ": 9286,
      "story": 9287,
      "took place ": 9288,
      "science ": 9289,
      "passed ": 9290,
      "quarters ": 9291,
      "Gir": 9292,
      "You": 9293,
      "ha ": 9294,
      "strug": 9295,
      "after a ": 9296,
      "Greek ": 9297,
      "Bre": 9298,
      "help": 9299,
      "deal ": 9300,
      "bound ": 9301,
      "and L": 9302,
      "ope ": 9303,
      "Infantry ": 9304,
      "buildings ": 9305,
      "rely ": 9306,
      "minutes ": 9307,
      "95 ": 9308,
      "ightly ": 9309,
      "Brown ": 9310,
      "exhi": 9311,
      "both the ": 9312,
      "combat ": 9313,
      "of D": 9314,
      "thel": 9315,
      "plant ": 9316,
      "ades ": 9317,
      ": the ": 9318,
      "in order to ": 9319,
      "Rel": 9320,
      "Produc": 9321,
      "May": 9322,
      "failed to ": 9323,
      "ers . \n": 9324,
      "ed its ": 9325,
      "stop ": 9326,
      "result ": 9327,
      "start ": 9328,
      "acted ": 9329,
      "constructed ": 9330,
      "led to ": 9331,
      "Old ": 9332,
      "Viet": 9333,
      "s ' ": 9334,
      "them to ": 9335,
      "Year ": 9336,
      "ayl": 9337,
      "award ": 9338,
      "activity ": 9339,
      "ara ": 9340,
      "tin": 9341,
      "olu": 9342,
      "prin": 9343,
      "havi": 9344,
      "fill": 9345,
      "secu": 9346,
      "Sup": 9347,
      "cording to the ": 9348,
      "directed by ": 9349,
      "model ": 9350,
      "My ": 9351,
      "ed their ": 9352,
      "appar": 9353,
      "actually ": 9354,
      "65 ": 9355,
      "table ": 9356,
      "eath ": 9357,
      "2001 ": 9358,
      "encoun": 9359,
      "thous": 9360,
      "wher": 9361,
      "Egyp": 9362,
      "audience ": 9363,
      "uty ": 9364,
      "susp": 9365,
      "each other ": 9366,
      "hours ": 9367,
      "Fed": 9368,
      "; he ": 9369,
      "relatively ": 9370,
      "Mel": 9371,
      "status ": 9372,
      "continue ": 9373,
      "debu": 9374,
      "visit": 9375,
      "stream ": 9376,
      "opport": 9377,
      "greater ": 9378,
      "last": 9379,
      "symb": 9380,
      "ny ": 9381,
      "in H": 9382,
      ". That ": 9383,
      "na ": 9384,
      "particular ": 9385,
      "2012 , ": 9386,
      "competition ": 9387,
      "xford ": 9388,
      "ecaus": 9389,
      "increase ": 9390,
      "it to ": 9391,
      "chief ": 9392,
      "primarily ": 9393,
      "died ": 9394,
      "gave the ": 9395,
      "sell ": 9396,
      "moved to ": 9397,
      "network ": 9398,
      "course ": 9399,
      "shap": 9400,
      "activi": 9401,
      ". All ": 9402,
      "should be ": 9403,
      "pool ": 9404,
      "mechan": 9405,
      "ya ": 9406,
      "All ": 9407,
      "hus": 9408,
      "ied ": 9409,
      "hir": 9410,
      "financial ": 9411,
      "graph": 9412,
      "wick": 9413,
      "ogue ": 9414,
      "NA": 9415,
      "Il": 9416,
      "starting ": 9417,
      "strateg": 9418,
      "attention ": 9419,
      "mixed ": 9420,
      "ing of the ": 9421,
      "portray": 9422,
      "received a ": 9423,
      "Sim": 9424,
      "fication ": 9425,
      "operation ": 9426,
      "metres ( ": 9427,
      "tournam": 9428,
      "in the first ": 9429,
      "i and ": 9430,
      "launch": 9431,
      "group of ": 9432,
      "Penn": 9433,
      "d , ": 9434,
      "peaked ": 9435,
      "kind ": 9436,
      "MS ": 9437,
      "Sam": 9438,
      "Battalion ": 9439,
      "multiple ": 9440,
      "or and ": 9441,
      "46 ": 9442,
      "chap": 9443,
      "chos": 9444,
      "rid": 9445,
      "seem": 9446,
      "helped ": 9447,
      "k and ": 9448,
      "extended ": 9449,
      "tillery ": 9450,
      "volum": 9451,
      "11": 9452,
      "bra": 9453,
      "ed into ": 9454,
      "passeng": 9455,
      "Group ": 9456,
      "ural ": 9457,
      "ark": 9458,
      "of their ": 9459,
      "manu": 9460,
      "34 ": 9461,
      "ison ": 9462,
      "weak": 9463,
      "other": 9464,
      "practice ": 9465,
      "in 17": 9466,
      "flow": 9467,
      "slightly ": 9468,
      "sens": 9469,
      "acu": 9470,
      "psy": 9471,
      "Youn": 9472,
      "cot": 9473,
      "mit": 9474,
      ". Their ": 9475,
      "the same ": 9476,
      "remain ": 9477,
      "! ": 9478,
      "Steph": 9479,
      "report ": 9480,
      "collabor": 9481,
      "high @-@ ": 9482,
      "torped": 9483,
      "potential ": 9484,
      "iel ": 9485,
      "Chil": 9486,
      "ales ": 9487,
      "in T": 9488,
      "concent": 9489,
      "Simp": 9490,
      "erate ": 9491,
      "ization ": 9492,
      "capital ": 9493,
      "Gran": 9494,
      "for their ": 9495,
      "ratic ": 9496,
      "issue ": 9497,
      "source ": 9498,
      "takes ": 9499,
      "here ": 9500,
      "mouth ": 9501,
      "recomm": 9502,
      "attempted to ": 9503,
      "suppl": 9504,
      "ultimately ": 9505,
      "ro ": 9506,
      "today ": 9507,
      "of her ": 9508,
      "joined the ": 9509,
      "man , ": 9510,
      "completely ": 9511,
      "Princ": 9512,
      "ae": 9513,
      "Battle of ": 9514,
      "alleg": 9515,
      "CA": 9516,
      "maximum ": 9517,
      "ight": 9518,
      "college ": 9519,
      "energy ": 9520,
      "because of ": 9521,
      "ading ": 9522,
      "described the ": 9523,
      "sought ": 9524,
      ". Most ": 9525,
      "there are ": 9526,
      "ois ": 9527,
      "along": 9528,
      "length ": 9529,
      "\" ) ": 9530,
      "pret": 9531,
      "Ste": 9532,
      "advis": 9533,
      "fish": 9534,
      "uments ": 9535,
      "ipal ": 9536,
      ". Ad": 9537,
      "miss": 9538,
      "minim": 9539,
      "ming ": 9540,
      "industry ": 9541,
      "au ": 9542,
      "gen ": 9543,
      "document": 9544,
      "ans": 9545,
      "mainly ": 9546,
      "records ": 9547,
      "( 199": 9548,
      "royal ": 9549,
      "on their ": 9550,
      "yan ": 9551,
      "ink": 9552,
      "vess": 9553,
      "coast": 9554,
      "forced to ": 9555,
      "independent ": 9556,
      "enjoy": 9557,
      "seg": 9558,
      "China ": 9559,
      "coach ": 9560,
      "ings and ": 9561,
      "meeting ": 9562,
      "prevent ": 9563,
      "la ": 9564,
      "to @-@ ": 9565,
      "overs ": 9566,
      "Back": 9567,
      "ship , ": 9568,
      "battles": 9569,
      "could not ": 9570,
      "inking ": 9571,
      "arity ": 9572,
      "do not ": 9573,
      "drawn ": 9574,
      "transl": 9575,
      "traffic ": 9576,
      "ully ": 9577,
      "fran": 9578,
      "draw ": 9579,
      "192": 9580,
      "moving ": 9581,
      "O '": 9582,
      "boat ": 9583,
      "Entertainment ": 9584,
      "subst": 9585,
      "alry ": 9586,
      "wrot": 9587,
      "Smith ": 9588,
      "Prince ": 9589,
      "successfully ": 9590,
      "We ": 9591,
      "ment , ": 9592,
      "UK ": 9593,
      "igg": 9594,
      "industri": 9595,
      "Earth ": 9596,
      "voic": 9597,
      "meet ": 9598,
      "een ": 9599,
      "sn": 9600,
      "Dut": 9601,
      "hard": 9602,
      "movie ": 9603,
      "film 's ": 9604,
      "etic ": 9605,
      ". Many ": 9606,
      "goals ": 9607,
      "sav": 9608,
      "Arth": 9609,
      "mph ( ": 9610,
      "Doc": 9611,
      "perf": 9612,
      "tel": 9613,
      "world": 9614,
      "cyclone ": 9615,
      "encour": 9616,
      "peopl": 9617,
      "estival ": 9618,
      "sylvan": 9619,
      "stories ": 9620,
      "( the ": 9621,
      ". Another ": 9622,
      "Si": 9623,
      "Ram": 9624,
      "tionary ": 9625,
      "host ": 9626,
      "Shi": 9627,
      "water": 9628,
      "rative ": 9629,
      "Sum": 9630,
      "sust": 9631,
      "touch": 9632,
      "themselves ": 9633,
      "specific ": 9634,
      ". The song ": 9635,
      "struck ": 9636,
      "widely ": 9637,
      "Empire ": 9638,
      "alty ": 9639,
      "conditions ": 9640,
      "led the ": 9641,
      "uals ": 9642,
      "5 @.@ ": 9643,
      "Stan": 9644,
      "on July ": 9645,
      "spac": 9646,
      "Str": 9647,
      "for her ": 9648,
      "recent ": 9649,
      "Camp": 9650,
      "urg": 9651,
      "which is ": 9652,
      "Test ": 9653,
      "foreign ": 9654,
      ". Since ": 9655,
      "expos": 9656,
      "older ": 9657,
      "behavi": 9658,
      "Spec": 9659,
      "ist of ": 9660,
      "which the ": 9661,
      "brary ": 9662,
      "acts ": 9663,
      "winter ": 9664,
      "designated ": 9665,
      "NH": 9666,
      "leaving ": 9667,
      "abandon": 9668,
      "ills ": 9669,
      "Lif": 9670,
      "tax": 9671,
      "captain ": 9672,
      "blood ": 9673,
      "suffered ": 9674,
      "mess": 9675,
      "greatest ": 9676,
      "communic": 9677,
      "unit ": 9678,
      "selling ": 9679,
      "invasion ": 9680,
      "that is ": 9681,
      "subsequent ": 9682,
      "cher ": 9683,
      "Los Angel": 9684,
      "mass ": 9685,
      "ishop ": 9686,
      "log": 9687,
      "bridg": 9688,
      "Bor": 9689,
      "ia and ": 9690,
      "property ": 9691,
      "towards the ": 9692,
      "performanc": 9693,
      "Dun": 9694,
      "ce": 9695,
      "naval ": 9696,
      "declin": 9697,
      "eph ": 9698,
      "Service ": 9699,
      "rich ": 9700,
      "insul": 9701,
      "affected ": 9702,
      "your ": 9703,
      "es with ": 9704,
      "officially ": 9705,
      "Ire": 9706,
      "shortly ": 9707,
      "friend": 9708,
      "Sun": 9709,
      "size ": 9710,
      "manager ": 9711,
      "41 ": 9712,
      "43 ": 9713,
      "oke ": 9714,
      "bon": 9715,
      "Haw": 9716,
      "recover": 9717,
      "og ": 9718,
      "miral ": 9719,
      ", while ": 9720,
      "circ": 9721,
      "kept ": 9722,
      "Film ": 9723,
      "Florida ": 9724,
      "ored ": 9725,
      ". If ": 9726,
      "weather ": 9727,
      "dedic": 9728,
      "peak ": 9729,
      "are the ": 9730,
      "twel": 9731,
      "perial ": 9732,
      "facil": 9733,
      "feel": 9734,
      "benef": 9735,
      "restor": 9736,
      "as he ": 9737,
      "44 ": 9738,
      "Civ": 9739,
      "complex ": 9740,
      "ability to ": 9741,
      "Sol": 9742,
      "2013 , ": 9743,
      "nominated ": 9744,
      "il , ": 9745,
      "advance ": 9746,
      "sively ": 9747,
      "like the ": 9748,
      "stated that ": 9749,
      "follow ": 9750,
      "div": 9751,
      "there was ": 9752,
      "rule ": 9753,
      "Ri": 9754,
      "long @-@ ": 9755,
      "Luc": 9756,
      "nic": 9757,
      "const": 9758,
      "however ": 9759,
      "ter @-@ ": 9760,
      "Whit": 9761,
      "square ": 9762,
      "Jackson ": 9763,
      "batter": 9764,
      "guitar ": 9765,
      "ticle ": 9766,
      "resist": 9767,
      "Museum ": 9768,
      "approach ": 9769,
      "5th ": 9770,
      "\" T": 9771,
      ". By the ": 9772,
      "Publ": 9773,
      "metal ": 9774,
      "New Zealand ": 9775,
      "U ": 9776,
      "Center ": 9777,
      "guns ": 9778,
      "ado ": 9779,
      "chestr": 9780,
      "floo": 9781,
      "Rock ": 9782,
      "hot": 9783,
      "challeng": 9784,
      "powerful ": 9785,
      "mine ": 9786,
      "featured ": 9787,
      "mitted ": 9788,
      "problems ": 9789,
      "sle": 9790,
      "makes ": 9791,
      "an \" ": 9792,
      "M @-@ ": 9793,
      "companies ": 9794,
      "term": 9795,
      "die ": 9796,
      "or to the ": 9797,
      "version of the ": 9798,
      "advant": 9799,
      "600 ": 9800,
      "ing her ": 9801,
      "inal ": 9802,
      "his own ": 9803,
      "meant ": 9804,
      "nin": 9805,
      "west": 9806,
      "federal ": 9807,
      "pul": 9808,
      "slow": 9809,
      "gri": 9810,
      "ulf ": 9811,
      "impl": 9812,
      "screen ": 9813,
      "phil": 9814,
      "this time ": 9815,
      "Madonn": 9816,
      "ahead ": 9817,
      "ius ": 9818,
      "described ": 9819,
      "Corps ": 9820,
      "Creek ": 9821,
      "Scotland ": 9822,
      "peror ": 9823,
      "10 , ": 9824,
      "laid ": 9825,
      "onto ": 9826,
      ". Ar": 9827,
      "dark ": 9828,
      "negoti": 9829,
      "4th ": 9830,
      "ople ": 9831,
      "four @-@ ": 9832,
      "made a ": 9833,
      "ram": 9834,
      "engine ": 9835,
      "broke ": 9836,
      "85 ": 9837,
      "mark ": 9838,
      "Gol": 9839,
      "on November ": 9840,
      "acquir": 9841,
      "ga": 9842,
      "enemy ": 9843,
      "lic": 9844,
      "schedul": 9845,
      "ers . The ": 9846,
      "mol": 9847,
      "kg ": 9848,
      "sli": 9849,
      "eball ": 9850,
      "pilot ": 9851,
      ", was ": 9852,
      "X ": 9853,
      "sam": 9854,
      "aim": 9855,
      "things ": 9856,
      "( A": 9857,
      "center ": 9858,
      "lack": 9859,
      "ers in ": 9860,
      "words ": 9861,
      "rot": 9862,
      "counc": 9863,
      "techni": 9864,
      "formul": 9865,
      "40": 9866,
      "which he ": 9867,
      "Croati": 9868,
      "Hall ": 9869,
      "executive ": 9870,
      "as they ": 9871,
      "provided ": 9872,
      "wel": 9873,
      "includes ": 9874,
      "equip": 9875,
      "eter ": 9876,
      "agreement ": 9877,
      "6 – ": 9878,
      "brief": 9879,
      "band 's ": 9880,
      "78 ": 9881,
      "7 @.@ ": 9882,
      "Live ": 9883,
      "wing ": 9884,
      "heavily ": 9885,
      "Sir ": 9886,
      "Kh": 9887,
      "physical ": 9888,
      "quality ": 9889,
      "neu": 9890,
      "Dev": 9891,
      "sign ": 9892,
      "described as ": 9893,
      "'re ": 9894,
      "necessary ": 9895,
      "call ": 9896,
      "Bat": 9897,
      "travel": 9898,
      "ests ": 9899,
      "ski ": 9900,
      "Major ": 9901,
      "danc": 9902,
      "who were ": 9903,
      "train ": 9904,
      "elim": 9905,
      "inem": 9906,
      "used for ": 9907,
      "Hel": 9908,
      "damag": 9909,
      "Jus": 9910,
      "Club ": 9911,
      "Colon": 9912,
      "prominent ": 9913,
      "Ben": 9914,
      "Fox ": 9915,
      "How": 9916,
      "promot": 9917,
      "Fort ": 9918,
      "ricket ": 9919,
      "15 , ": 9920,
      "contemporary ": 9921,
      "42 ": 9922,
      "range of ": 9923,
      "county ": 9924,
      "% of the ": 9925,
      "girl": 9926,
      "to \" ": 9927,
      "based on the ": 9928,
      "marriage ": 9929,
      "com ": 9930,
      "tac": 9931,
      "Captain ": 9932,
      "ation in ": 9933,
      "Gal": 9934,
      "but": 9935,
      "variety of ": 9936,
      "Bob": 9937,
      "certi": 9938,
      "analys": 9939,
      "2002 ": 9940,
      "capac": 9941,
      " When ": 9942,
      "mast": 9943,
      "Me": 9944,
      "es , the ": 9945,
      "as a \" ": 9946,
      "effective ": 9947,
      "Ob": 9948,
      "2009 , ": 9949,
      "ess and ": 9950,
      "cost": 9951,
      "Fleet ": 9952,
      "worth ": 9953,
      "wound": 9954,
      "on its ": 9955,
      "ation to ": 9956,
      "a . The ": 9957,
      "Pic": 9958,
      "regul": 9959,
      "books ": 9960,
      ". In a ": 9961,
      "ing for ": 9962,
      "tered ": 9963,
      "border ": 9964,
      "matter ": 9965,
      "second": 9966,
      "categ": 9967,
      "dang": 9968,
      "concert ": 9969,
      "64 ": 9970,
      "toward ": 9971,
      "less than ": 9972,
      "Northern ": 9973,
      "modi": 9974,
      "St ": 9975,
      ". As the ": 9976,
      "Ath": 9977,
      "lem": 9978,
      "in her ": 9979,
      "ask ": 9980,
      " = = History ": 9981,
      "Holl": 9982,
      "Histor": 9983,
      "turn": 9984,
      "expe": 9985,
      "content ": 9986,
      "vocals ": 9987,
      "foot": 9988,
      ", D": 9989,
      "post @-@ ": 9990,
      "room": 9991,
      ". ( ": 9992,
      "farm": 9993,
      "feel ": 9994,
      "cod": 9995,
      "citiz": 9996,
      "ensity ": 9997,
      "Coll": 9998,
      "Tour ": 9999,
      "example , ": 10000,
      "Sar": 10001,
      "objec": 10002,
      "ea , ": 10003,
      "ockey ": 10004,
      "returning ": 10005,
      ", and a ": 10006,
      "Boston ": 10007,
      "shows ": 10008,
      "oud ": 10009,
      "Sun ": 10010,
      "commander ": 10011,
      "nit": 10012,
      "deriv": 10013,
      "result of ": 10014,
      "true ": 10015,
      "DVD ": 10016,
      "grand": 10017,
      "icient ": 10018,
      "deep ": 10019,
      "marine ": 10020,
      "adel": 10021,
      "Oxford ": 10022,
      "thu": 10023,
      "the most ": 10024,
      "ings of ": 10025,
      " Ac": 10026,
      "avoid ": 10027,
      "BBC ": 10028,
      "used in ": 10029,
      "predic": 10030,
      "rainf": 10031,
      "usual ": 10032,
      "Stone ": 10033,
      "North": 10034,
      "fish ": 10035,
      "on June ": 10036,
      "supp": 10037,
      "Cy": 10038,
      "allowed ": 10039,
      "ve": 10040,
      "historian ": 10041,
      "edition ": 10042,
      "of P": 10043,
      "assaul": 10044,
      "phi": 10045,
      "in 's ": 10046,
      "passing ": 10047,
      "14 , ": 10048,
      "ingham ": 10049,
      "ally , ": 10050,
      "there is ": 10051,
      "medical ": 10052,
      "150 ": 10053,
      "Harrison ": 10054,
      "Ven": 10055,
      "and T": 10056,
      "mas ": 10057,
      "praised the ": 10058,
      "Dre": 10059,
      "bey": 10060,
      "health ": 10061,
      "care": 10062,
      "heard ": 10063,
      "3 @,@ ": 10064,
      "Latin ": 10065,
      "gian ": 10066,
      "retain": 10067,
      "married ": 10068,
      "cav": 10069,
      "egr": 10070,
      "resc": 10071,
      "develop ": 10072,
      "West": 10073,
      "9 @.@ ": 10074,
      "mu": 10075,
      "guest ": 10076,
      "Southern ": 10077,
      "experim": 10078,
      "embly ": 10079,
      "first @-@ ": 10080,
      "counter": 10081,
      "pra": 10082,
      "Chief ": 10083,
      "university ": 10084,
      "stood ": 10085,
      "earned ": 10086,
      "student ": 10087,
      "Cr": 10088,
      "politic": 10089,
      "offensive ": 10090,
      "transi": 10091,
      "% of ": 10092,
      "consecu": 10093,
      "eal ": 10094,
      "ports ": 10095,
      "crip": 10096,
      "annel ": 10097,
      "stag": 10098,
      "ren ": 10099,
      "scoring ": 10100,
      "said , \" ": 10101,
      "Act ": 10102,
      "bom": 10103,
      ". \" In ": 10104,
      "and its ": 10105,
      "Background ": 10106,
      "es , but ": 10107,
      "were not ": 10108,
      "adver": 10109,
      "ton , ": 10110,
      "debuted ": 10111,
      "inches ( ": 10112,
      "burg": 10113,
      "becoming ": 10114,
      "instruc": 10115,
      "manufac": 10116,
      "says ": 10117,
      "frequently ": 10118,
      "Records ": 10119,
      ". But ": 10120,
      "architec": 10121,
      " , who ": 10122,
      "apol": 10123,
      "supply ": 10124,
      "step": 10125,
      "or \" ": 10126,
      "Austri": 10127,
      "damaged ": 10128,
      "foot ": 10129,
      "evelop": 10130,
      "ty @-@ ": 10131,
      "all @-@ ": 10132,
      "reference ": 10133,
      "singer ": 10134,
      "big ": 10135,
      "ero ": 10136,
      "contains ": 10137,
      "artillery ": 10138,
      "scale ": 10139,
      "background ": 10140,
      "sent": 10141,
      "All @-@ ": 10142,
      "Association ": 10143,
      "ani ": 10144,
      "pap": 10145,
      "Vol": 10146,
      "herself ": 10147,
      "in ( ": 10148,
      "eplay ": 10149,
      "istr": 10150,
      "e , and the ": 10151,
      "7 – ": 10152,
      "simp": 10153,
      ", and was ": 10154,
      "ted to the ": 10155,
      "tropical storm ": 10156,
      "stitute ": 10157,
      "typically ": 10158,
      "seconds ": 10159,
      "symp": 10160,
      "Columb": 10161,
      "and other ": 10162,
      ", which was ": 10163,
      " = = History = = \n": 10164,
      "enz": 10165,
      "type ": 10166,
      "Sil": 10167,
      "load ": 10168,
      "cen": 10169,
      "onc": 10170,
      "emphas": 10171,
      "had not ": 10172,
      ". , ": 10173,
      "alism ": 10174,
      "simply ": 10175,
      "itable ": 10176,
      "conserv": 10177,
      "Parliament ": 10178,
      "fic ": 10179,
      "oo ": 10180,
      "Frank ": 10181,
      "of R": 10182,
      "was born ": 10183,
      "16 , ": 10184,
      "gent": 10185,
      "Green ": 10186,
      "railway ": 10187,
      "lizab": 10188,
      "consecutive ": 10189,
      "rical ": 10190,
      "chosen ": 10191,
      "X @-@ ": 10192,
      "job ": 10193,
      "Jon": 10194,
      "elimin": 10195,
      "currently ": 10196,
      "clusion ": 10197,
      "setting ": 10198,
      "1 , the ": 10199,
      "fast ": 10200,
      "famous ": 10201,
      "constitu": 10202,
      "if the ": 10203,
      ". Several ": 10204,
      "leader ": 10205,
      "attribu": 10206,
      "Direc": 10207,
      "soldiers ": 10208,
      "house": 10209,
      "announced that ": 10210,
      "travel ": 10211,
      "drum": 10212,
      "offer": 10213,
      "is now ": 10214,
      "native ": 10215,
      "2008 , ": 10216,
      "northeast ": 10217,
      "2016 ": 10218,
      "album 's ": 10219,
      "+ ": 10220,
      "Far": 10221,
      "participated ": 10222,
      "sister ": 10223,
      "descrip": 10224,
      "engine": 10225,
      "attach": 10226,
      "shir": 10227,
      "tried to ": 10228,
      "subject ": 10229,
      "majority ": 10230,
      "ting to ": 10231,
      "lu": 10232,
      "billion ": 10233,
      "Sur": 10234,
      "over a ": 10235,
      ". Later ": 10236,
      "expand": 10237,
      "s , and the ": 10238,
      "blue ": 10239,
      "deep": 10240,
      "lec": 10241,
      "crimin": 10242,
      "My": 10243,
      "stopp": 10244,
      "sex ": 10245,
      "oughly ": 10246,
      "th century , ": 10247,
      "to R": 10248,
      "parents ": 10249,
      "uel ": 10250,
      "mm ( ": 10251,
      "grew ": 10252,
      "pping ": 10253,
      "newly ": 10254,
      "ed with a ": 10255,
      "B @-@ ": 10256,
      "I 'm ": 10257,
      "may have ": 10258,
      "collap": 10259,
      "Mass": 10260,
      "Football ": 10261,
      "Scottish ": 10262,
      "5 – ": 10263,
      "00": 10264,
      "reason ": 10265,
      "oppon": 10266,
      "loy": 10267,
      "Polish ": 10268,
      "in K": 10269,
      "attrac": 10270,
      "beat ": 10271,
      "city of ": 10272,
      "Christi": 10273,
      "Eastern ": 10274,
      "Michigan ": 10275,
      "brig": 10276,
      "parall": 10277,
      "( \" ": 10278,
      "senior ": 10279,
      ". When the ": 10280,
      "promp": 10281,
      " During the ": 10282,
      "that a ": 10283,
      "tions and ": 10284,
      "assign": 10285,
      "cause ": 10286,
      "Fantasy ": 10287,
      "budg": 10288,
      "mention": 10289,
      "education ": 10290,
      "Tom ": 10291,
      "ka ": 10292,
      "Manchester ": 10293,
      "Young ": 10294,
      "rein": 10295,
      "acher ": 10296,
      "Series ": 10297,
      "dated ": 10298,
      "return to ": 10299,
      "Pennsylvan": 10300,
      "giving ": 10301,
      "edg": 10302,
      "man 's ": 10303,
      "time of ": 10304,
      "requi": 10305,
      "saying ": 10306,
      "ations and ": 10307,
      "culture ": 10308,
      "Dutch ": 10309,
      "ac ": 10310,
      "sixth ": 10311,
      "Jim ": 10312,
      "roman": 10313,
      "evacu": 10314,
      "8 @.@ ": 10315,
      "would not ": 10316,
      "horse ": 10317,
      "refused to ": 10318,
      "drive ": 10319,
      "Post ": 10320,
      "surround": 10321,
      "birds ": 10322,
      "rey ": 10323,
      "not to ": 10324,
      "machine ": 10325,
      "Don ": 10326,
      " = = \n": 10327,
      "leg ": 10328,
      "sky ": 10329,
      "similar to ": 10330,
      "Som": 10331,
      "Hurricane ": 10332,
      "Regiment ": 10333,
      "s , with ": 10334,
      "oss": 10335,
      "perform ": 10336,
      "ts ( ": 10337,
      "match": 10338,
      "alone ": 10339,
      "cut": 10340,
      "music video ": 10341,
      "ywood ": 10342,
      "urch": 10343,
      "11 , ": 10344,
      "ley , ": 10345,
      "Republic ": 10346,
      "gain": 10347,
      ", it ": 10348,
      "Recep": 10349,
      "es , which ": 10350,
      "ricul": 10351,
      "equipment ": 10352,
      "als and ": 10353,
      "half @-@ ": 10354,
      "form of ": 10355,
      "WW": 10356,
      "broken ": 10357,
      "changes ": 10358,
      "impact ": 10359,
      "street ": 10360,
      "Allied ": 10361,
      "on May ": 10362,
      "judg": 10363,
      "AF": 10364,
      "18 , ": 10365,
      "antine ": 10366,
      "town": 10367,
      "puter ": 10368,
      "contrast ": 10369,
      "regist": 10370,
      "Wom": 10371,
      "possibly ": 10372,
      "ture , ": 10373,
      "means ": 10374,
      "year @-@ old ": 10375,
      "Hear": 10376,
      "cell": 10377,
      "left the ": 10378,
      "circul": 10379,
      "severe ": 10380,
      "officials ": 10381,
      "itation ": 10382,
[...]
